unsigned char basic_rnn_tflite[] = {
  0x1c, 0x00, 0x00, 0x00, 0x54, 0x46, 0x4c, 0x33, 0x14, 0x00, 0x20, 0x00,
  0x1c, 0x00, 0x18, 0x00, 0x14, 0x00, 0x10, 0x00, 0x0c, 0x00, 0x00, 0x00,
  0x08, 0x00, 0x04, 0x00, 0x14, 0x00, 0x00, 0x00, 0x1c, 0x00, 0x00, 0x00,
  0x80, 0x00, 0x00, 0x00, 0xd0, 0x00, 0x00, 0x00, 0xf4, 0x39, 0x00, 0x00,
  0x04, 0x3a, 0x00, 0x00, 0xb0, 0x92, 0x00, 0x00, 0x03, 0x00, 0x00, 0x00,
  0x01, 0x00, 0x00, 0x00, 0x04, 0x00, 0x00, 0x00, 0x4e, 0x89, 0xff, 0xff,
  0x0c, 0x00, 0x00, 0x00, 0x1c, 0x00, 0x00, 0x00, 0x38, 0x00, 0x00, 0x00,
  0x0f, 0x00, 0x00, 0x00, 0x73, 0x65, 0x72, 0x76, 0x69, 0x6e, 0x67, 0x5f,
  0x64, 0x65, 0x66, 0x61, 0x75, 0x6c, 0x74, 0x00, 0x01, 0x00, 0x00, 0x00,
  0x04, 0x00, 0x00, 0x00, 0xd8, 0x8b, 0xff, 0xff, 0x4f, 0x00, 0x00, 0x00,
  0x04, 0x00, 0x00, 0x00, 0x05, 0x00, 0x00, 0x00, 0x64, 0x65, 0x6e, 0x73,
  0x65, 0x00, 0x00, 0x00, 0x01, 0x00, 0x00, 0x00, 0x04, 0x00, 0x00, 0x00,
  0xea, 0x8a, 0xff, 0xff, 0x04, 0x00, 0x00, 0x00, 0x07, 0x00, 0x00, 0x00,
  0x69, 0x6e, 0x70, 0x75, 0x74, 0x5f, 0x31, 0x00, 0x02, 0x00, 0x00, 0x00,
  0x2c, 0x00, 0x00, 0x00, 0x04, 0x00, 0x00, 0x00, 0x18, 0x8c, 0xff, 0xff,
  0xba, 0x00, 0x00, 0x00, 0x04, 0x00, 0x00, 0x00, 0x13, 0x00, 0x00, 0x00,
  0x43, 0x4f, 0x4e, 0x56, 0x45, 0x52, 0x53, 0x49, 0x4f, 0x4e, 0x5f, 0x4d,
  0x45, 0x54, 0x41, 0x44, 0x41, 0x54, 0x41, 0x00, 0x3c, 0x8c, 0xff, 0xff,
  0xb9, 0x00, 0x00, 0x00, 0x04, 0x00, 0x00, 0x00, 0x13, 0x00, 0x00, 0x00,
  0x6d, 0x69, 0x6e, 0x5f, 0x72, 0x75, 0x6e, 0x74, 0x69, 0x6d, 0x65, 0x5f,
  0x76, 0x65, 0x72, 0x73, 0x69, 0x6f, 0x6e, 0x00, 0xbb, 0x00, 0x00, 0x00,
  0x20, 0x39, 0x00, 0x00, 0x18, 0x39, 0x00, 0x00, 0x04, 0x39, 0x00, 0x00,
  0xec, 0x38, 0x00, 0x00, 0xd4, 0x38, 0x00, 0x00, 0xc0, 0x38, 0x00, 0x00,
  0xac, 0x38, 0x00, 0x00, 0xa4, 0x38, 0x00, 0x00, 0x88, 0x38, 0x00, 0x00,
  0x74, 0x38, 0x00, 0x00, 0x6c, 0x38, 0x00, 0x00, 0x58, 0x38, 0x00, 0x00,
  0x2c, 0x38, 0x00, 0x00, 0xec, 0x35, 0x00, 0x00, 0xd0, 0x35, 0x00, 0x00,
  0xb4, 0x35, 0x00, 0x00, 0x98, 0x35, 0x00, 0x00, 0x90, 0x35, 0x00, 0x00,
  0x88, 0x35, 0x00, 0x00, 0x80, 0x35, 0x00, 0x00, 0x78, 0x35, 0x00, 0x00,
  0x70, 0x35, 0x00, 0x00, 0x68, 0x35, 0x00, 0x00, 0x60, 0x35, 0x00, 0x00,
  0x58, 0x35, 0x00, 0x00, 0x50, 0x35, 0x00, 0x00, 0x48, 0x35, 0x00, 0x00,
  0x40, 0x35, 0x00, 0x00, 0x38, 0x35, 0x00, 0x00, 0x30, 0x35, 0x00, 0x00,
  0x28, 0x35, 0x00, 0x00, 0x20, 0x35, 0x00, 0x00, 0x18, 0x35, 0x00, 0x00,
  0x10, 0x35, 0x00, 0x00, 0x08, 0x35, 0x00, 0x00, 0x00, 0x35, 0x00, 0x00,
  0xf8, 0x34, 0x00, 0x00, 0xf0, 0x34, 0x00, 0x00, 0xe8, 0x34, 0x00, 0x00,
  0xe0, 0x34, 0x00, 0x00, 0xd8, 0x34, 0x00, 0x00, 0xd0, 0x34, 0x00, 0x00,
  0xc8, 0x34, 0x00, 0x00, 0xc0, 0x34, 0x00, 0x00, 0xb8, 0x34, 0x00, 0x00,
  0xb0, 0x34, 0x00, 0x00, 0xa8, 0x34, 0x00, 0x00, 0xa0, 0x34, 0x00, 0x00,
  0x98, 0x34, 0x00, 0x00, 0x90, 0x34, 0x00, 0x00, 0x88, 0x34, 0x00, 0x00,
  0x80, 0x34, 0x00, 0x00, 0x78, 0x34, 0x00, 0x00, 0x70, 0x34, 0x00, 0x00,
  0x68, 0x34, 0x00, 0x00, 0x60, 0x34, 0x00, 0x00, 0x58, 0x34, 0x00, 0x00,
  0x50, 0x34, 0x00, 0x00, 0x48, 0x34, 0x00, 0x00, 0x40, 0x34, 0x00, 0x00,
  0x38, 0x34, 0x00, 0x00, 0x30, 0x34, 0x00, 0x00, 0x28, 0x34, 0x00, 0x00,
  0x20, 0x34, 0x00, 0x00, 0x18, 0x34, 0x00, 0x00, 0x10, 0x34, 0x00, 0x00,
  0x08, 0x34, 0x00, 0x00, 0x00, 0x34, 0x00, 0x00, 0xf8, 0x33, 0x00, 0x00,
  0xf0, 0x33, 0x00, 0x00, 0xe8, 0x33, 0x00, 0x00, 0xe0, 0x33, 0x00, 0x00,
  0xd8, 0x33, 0x00, 0x00, 0xd0, 0x33, 0x00, 0x00, 0xc8, 0x33, 0x00, 0x00,
  0xc0, 0x33, 0x00, 0x00, 0xb8, 0x33, 0x00, 0x00, 0xb0, 0x33, 0x00, 0x00,
  0xa8, 0x33, 0x00, 0x00, 0xa0, 0x33, 0x00, 0x00, 0x98, 0x33, 0x00, 0x00,
  0x90, 0x33, 0x00, 0x00, 0x88, 0x33, 0x00, 0x00, 0x80, 0x33, 0x00, 0x00,
  0x78, 0x33, 0x00, 0x00, 0x70, 0x33, 0x00, 0x00, 0x5c, 0x33, 0x00, 0x00,
  0x54, 0x33, 0x00, 0x00, 0x4c, 0x33, 0x00, 0x00, 0x44, 0x33, 0x00, 0x00,
  0x3c, 0x33, 0x00, 0x00, 0x34, 0x33, 0x00, 0x00, 0x2c, 0x33, 0x00, 0x00,
  0x14, 0x33, 0x00, 0x00, 0x00, 0x33, 0x00, 0x00, 0xa0, 0x32, 0x00, 0x00,
  0x50, 0x2c, 0x00, 0x00, 0x60, 0x2a, 0x00, 0x00, 0x58, 0x2a, 0x00, 0x00,
  0x50, 0x2a, 0x00, 0x00, 0x48, 0x2a, 0x00, 0x00, 0x40, 0x2a, 0x00, 0x00,
  0x38, 0x2a, 0x00, 0x00, 0x30, 0x2a, 0x00, 0x00, 0x28, 0x2a, 0x00, 0x00,
  0x20, 0x2a, 0x00, 0x00, 0x18, 0x2a, 0x00, 0x00, 0x10, 0x2a, 0x00, 0x00,
  0x08, 0x2a, 0x00, 0x00, 0x00, 0x2a, 0x00, 0x00, 0xf8, 0x29, 0x00, 0x00,
  0xf0, 0x29, 0x00, 0x00, 0xe8, 0x29, 0x00, 0x00, 0xe0, 0x29, 0x00, 0x00,
  0xd8, 0x29, 0x00, 0x00, 0xd0, 0x29, 0x00, 0x00, 0xc8, 0x29, 0x00, 0x00,
  0xc0, 0x29, 0x00, 0x00, 0xb8, 0x29, 0x00, 0x00, 0xa0, 0x29, 0x00, 0x00,
  0x8c, 0x29, 0x00, 0x00, 0x2c, 0x29, 0x00, 0x00, 0xdc, 0x22, 0x00, 0x00,
  0x8c, 0x1c, 0x00, 0x00, 0x84, 0x1c, 0x00, 0x00, 0x7c, 0x1c, 0x00, 0x00,
  0x74, 0x1c, 0x00, 0x00, 0x6c, 0x1c, 0x00, 0x00, 0x64, 0x1c, 0x00, 0x00,
  0x5c, 0x1c, 0x00, 0x00, 0x54, 0x1c, 0x00, 0x00, 0x4c, 0x1c, 0x00, 0x00,
  0x44, 0x1c, 0x00, 0x00, 0x3c, 0x1c, 0x00, 0x00, 0x34, 0x1c, 0x00, 0x00,
  0x2c, 0x1c, 0x00, 0x00, 0x24, 0x1c, 0x00, 0x00, 0x1c, 0x1c, 0x00, 0x00,
  0x14, 0x1c, 0x00, 0x00, 0x0c, 0x1c, 0x00, 0x00, 0x04, 0x1c, 0x00, 0x00,
  0xfc, 0x1b, 0x00, 0x00, 0xf4, 0x1b, 0x00, 0x00, 0xec, 0x1b, 0x00, 0x00,
  0xe4, 0x1b, 0x00, 0x00, 0xcc, 0x1b, 0x00, 0x00, 0xb8, 0x1b, 0x00, 0x00,
  0x58, 0x1b, 0x00, 0x00, 0x08, 0x15, 0x00, 0x00, 0xb8, 0x0e, 0x00, 0x00,
  0xb0, 0x0e, 0x00, 0x00, 0xa8, 0x0e, 0x00, 0x00, 0xa0, 0x0e, 0x00, 0x00,
  0x98, 0x0e, 0x00, 0x00, 0x90, 0x0e, 0x00, 0x00, 0x88, 0x0e, 0x00, 0x00,
  0x80, 0x0e, 0x00, 0x00, 0x78, 0x0e, 0x00, 0x00, 0x70, 0x0e, 0x00, 0x00,
  0x68, 0x0e, 0x00, 0x00, 0x60, 0x0e, 0x00, 0x00, 0x58, 0x0e, 0x00, 0x00,
  0x50, 0x0e, 0x00, 0x00, 0x48, 0x0e, 0x00, 0x00, 0x40, 0x0e, 0x00, 0x00,
  0x38, 0x0e, 0x00, 0x00, 0x30, 0x0e, 0x00, 0x00, 0x28, 0x0e, 0x00, 0x00,
  0x20, 0x0e, 0x00, 0x00, 0x18, 0x0e, 0x00, 0x00, 0x10, 0x0e, 0x00, 0x00,
  0xfc, 0x0d, 0x00, 0x00, 0xe4, 0x0d, 0x00, 0x00, 0xd0, 0x0d, 0x00, 0x00,
  0x70, 0x0d, 0x00, 0x00, 0x20, 0x07, 0x00, 0x00, 0xd0, 0x00, 0x00, 0x00,
  0xc8, 0x00, 0x00, 0x00, 0xc0, 0x00, 0x00, 0x00, 0xb8, 0x00, 0x00, 0x00,
  0xb0, 0x00, 0x00, 0x00, 0xa8, 0x00, 0x00, 0x00, 0xa0, 0x00, 0x00, 0x00,
  0x98, 0x00, 0x00, 0x00, 0x90, 0x00, 0x00, 0x00, 0x70, 0x00, 0x00, 0x00,
  0x04, 0x00, 0x00, 0x00, 0x42, 0x8e, 0xff, 0xff, 0x04, 0x00, 0x00, 0x00,
  0x5c, 0x00, 0x00, 0x00, 0x0c, 0x00, 0x00, 0x00, 0x08, 0x00, 0x0e, 0x00,
  0x08, 0x00, 0x04, 0x00, 0x08, 0x00, 0x00, 0x00, 0x14, 0x00, 0x00, 0x00,
  0x2c, 0x00, 0x00, 0x00, 0x00, 0x00, 0x0a, 0x00, 0x0c, 0x00, 0x08, 0x00,
  0x00, 0x00, 0x07, 0x00, 0x0a, 0x00, 0x00, 0x00, 0x00, 0x00, 0x00, 0x01,
  0x04, 0x00, 0x00, 0x00, 0x00, 0x00, 0x00, 0x00, 0x00, 0x00, 0x0a, 0x00,
  0x10, 0x00, 0x0c, 0x00, 0x08, 0x00, 0x04, 0x00, 0x0a, 0x00, 0x00, 0x00,
  0x02, 0x00, 0x00, 0x00, 0x02, 0x00, 0x00, 0x00, 0x04, 0x00, 0x00, 0x00,
  0x05, 0x00, 0x00, 0x00, 0x32, 0x2e, 0x39, 0x2e, 0x32, 0x00, 0x00, 0x00,
  0xaa, 0x8e, 0xff, 0xff, 0x04, 0x00, 0x00, 0x00, 0x10, 0x00, 0x00, 0x00,
  0x31, 0x2e, 0x31, 0x35, 0x2e, 0x30, 0x00, 0x00, 0x00, 0x00, 0x00, 0x00,
  0x00, 0x00, 0x00, 0x00, 0xe0, 0x70, 0xff, 0xff, 0xe4, 0x70, 0xff, 0xff,
  0xe8, 0x70, 0xff, 0xff, 0xec, 0x70, 0xff, 0xff, 0xf0, 0x70, 0xff, 0xff,
  0xf4, 0x70, 0xff, 0xff, 0xf8, 0x70, 0xff, 0xff, 0xfc, 0x70, 0xff, 0xff,
  0xe6, 0x8e, 0xff, 0xff, 0x04, 0x00, 0x00, 0x00, 0x40, 0x06, 0x00, 0x00,
  0x70, 0xd2, 0x93, 0x3c, 0x01, 0xcc, 0xdb, 0xbd, 0x33, 0xce, 0xa6, 0x3e,
  0xbe, 0xac, 0x66, 0xbd, 0x3d, 0x2a, 0xe2, 0xbd, 0xf8, 0xf5, 0xad, 0x3d,
  0x45, 0x7e, 0x85, 0x3e, 0x94, 0xf7, 0xa8, 0xbe, 0x55, 0xb1, 0x1d, 0x3e,
  0xbd, 0x4f, 0x2e, 0xbe, 0xcc, 0xc1, 0x56, 0xbe, 0x9a, 0xfe, 0x6b, 0x3e,
  0x61, 0x4a, 0x12, 0x3d, 0x44, 0x0b, 0x98, 0xbd, 0x75, 0xb1, 0x04, 0x3e,
  0x84, 0x31, 0x9e, 0xbe, 0x4e, 0xe4, 0xa0, 0x3d, 0x29, 0xa4, 0xb7, 0x3d,
  0x92, 0x4d, 0xf5, 0xbd, 0x37, 0x03, 0x9b, 0xbe, 0x41, 0x9c, 0x73, 0x3e,
  0xee, 0xb6, 0x7b, 0xbe, 0x91, 0x34, 0x97, 0x3e, 0x18, 0xa6, 0xa7, 0x3e,
  0xc8, 0x48, 0xa8, 0x3e, 0xa4, 0xc3, 0xda, 0x3d, 0x15, 0x73, 0x3b, 0x3e,
  0x40, 0x2d, 0x8c, 0xbe, 0xb7, 0x49, 0x9e, 0x3d, 0xd3, 0xf5, 0x88, 0xbc,
  0xf0, 0x5a, 0x21, 0xbe, 0x25, 0xc6, 0x63, 0xbe, 0x7d, 0xda, 0x95, 0xbe,
  0xb1, 0x79, 0xce, 0x3e, 0x24, 0x8f, 0x9f, 0x3e, 0xd7, 0x84, 0x8e, 0x3d,
  0x06, 0x0f, 0x1c, 0x3e, 0xe7, 0x00, 0x73, 0x3d, 0x24, 0x7e, 0x43, 0xbe,
  0x83, 0xe4, 0x91, 0xbe, 0x3c, 0x0d, 0x14, 0xbe, 0x48, 0x82, 0x73, 0x3e,
  0x4b, 0x9a, 0xb3, 0x3e, 0x2c, 0xd0, 0x24, 0x3e, 0x69, 0xab, 0x64, 0xbe,
  0x42, 0x28, 0x26, 0x3e, 0xcf, 0x5e, 0x2b, 0x3e, 0xdc, 0xbc, 0xef, 0x3e,
  0xbb, 0xe6, 0x2c, 0xbe, 0x7e, 0x7e, 0xcc, 0x3e, 0xec, 0x67, 0x5c, 0x3d,
  0x68, 0x3e, 0x9c, 0xbe, 0xd3, 0x74, 0xf4, 0xbd, 0x8e, 0xaf, 0x81, 0x3e,
  0xe7, 0xeb, 0xc1, 0x3e, 0x63, 0x8b, 0x32, 0xbd, 0x4f, 0x9f, 0x97, 0xbe,
  0xb1, 0x50, 0xbd, 0xbd, 0x72, 0xf9, 0x85, 0x3e, 0xc5, 0x55, 0x68, 0x3c,
  0x00, 0xcc, 0x53, 0xbd, 0x33, 0x53, 0x7c, 0xbe, 0x21, 0x17, 0x9e, 0x3e,
  0x79, 0x0a, 0x04, 0xbd, 0x24, 0x4c, 0x9a, 0xbe, 0xec, 0xcb, 0x29, 0x3d,
  0x4c, 0x55, 0x8b, 0x3e, 0xf2, 0x51, 0x26, 0x3e, 0xc8, 0x09, 0x0a, 0xbf,
  0xc0, 0xbb, 0xf0, 0x3e, 0x05, 0x23, 0x0c, 0x3f, 0x90, 0x86, 0x65, 0x3e,
  0x99, 0x25, 0x1d, 0xbe, 0xae, 0xd0, 0xb8, 0x3e, 0x21, 0xed, 0x79, 0xbc,
  0x0b, 0xc5, 0x70, 0x3c, 0xc6, 0xf9, 0x3e, 0x3d, 0x3c, 0x64, 0x11, 0xbf,
  0x31, 0x38, 0x80, 0x3e, 0xf5, 0x55, 0xe2, 0xbe, 0x04, 0x6d, 0x01, 0x3e,
  0xf0, 0xe8, 0x6f, 0x3e, 0x75, 0x8b, 0x54, 0xbe, 0x7a, 0x26, 0x71, 0xbe,
  0xd0, 0x7d, 0xe1, 0xbe, 0xe3, 0x1a, 0x8d, 0xbe, 0x3d, 0x1d, 0x2f, 0xbe,
  0x01, 0x42, 0x68, 0xbd, 0xf9, 0x7c, 0x81, 0xbe, 0xc8, 0xfe, 0xcb, 0x3e,
  0xab, 0x53, 0x40, 0xbe, 0x9d, 0xb7, 0xc2, 0xbe, 0xaa, 0x72, 0x06, 0x3e,
  0x1f, 0xf4, 0x9a, 0x3c, 0xfd, 0x46, 0xf8, 0xbe, 0x04, 0x3d, 0x59, 0xbe,
  0xcd, 0xe1, 0x6b, 0x3e, 0x6a, 0x0c, 0x2f, 0x3d, 0x98, 0x67, 0x27, 0x3c,
  0xfc, 0x37, 0x5b, 0xbb, 0x21, 0x88, 0xda, 0xbc, 0x13, 0x5e, 0xeb, 0xbe,
  0x8e, 0x88, 0x3a, 0xbe, 0x1b, 0xfd, 0x7c, 0xbe, 0x7c, 0xd8, 0x81, 0xbd,
  0x9b, 0xae, 0x2d, 0x3e, 0x1f, 0x6b, 0xa4, 0x3c, 0xdd, 0xa0, 0x8b, 0x3e,
  0xb7, 0x24, 0x42, 0x3e, 0xb5, 0x03, 0x1c, 0x3e, 0x40, 0x37, 0x5a, 0xbe,
  0x31, 0xc0, 0x4c, 0x3e, 0xc8, 0x4b, 0xf0, 0xbd, 0x72, 0x72, 0x9a, 0x3e,
  0xd9, 0x9d, 0x0f, 0xbe, 0xc8, 0x17, 0xbc, 0x3e, 0x42, 0x7a, 0xdf, 0x3d,
  0xda, 0xea, 0xf3, 0x3e, 0xba, 0xc6, 0x70, 0x3e, 0x2a, 0xd4, 0x5b, 0xbe,
  0x89, 0x88, 0x9f, 0x3d, 0x59, 0xdd, 0xdb, 0xbd, 0x34, 0x09, 0xde, 0xbd,
  0x83, 0x45, 0xe1, 0xbe, 0xc2, 0xd7, 0x45, 0xbe, 0xfe, 0x76, 0xd9, 0xbc,
  0x17, 0x83, 0xa0, 0x3d, 0x5a, 0xbe, 0x67, 0x3d, 0x60, 0xba, 0xf7, 0x3b,
  0xc8, 0x2a, 0xe4, 0xbe, 0xae, 0x88, 0x21, 0x3e, 0x12, 0x4e, 0x8a, 0x3e,
  0xd0, 0x0f, 0xd2, 0x3e, 0x2e, 0x1d, 0xb1, 0x3e, 0xeb, 0x29, 0x42, 0xbe,
  0x9b, 0xea, 0x9c, 0x3c, 0xb5, 0x9e, 0x48, 0xbe, 0x5b, 0xb7, 0xce, 0x3e,
  0x92, 0xf7, 0x91, 0xbe, 0x59, 0x58, 0xbc, 0xbe, 0x29, 0x8b, 0xe4, 0x3e,
  0xaa, 0x9d, 0x69, 0xbd, 0xd1, 0xaa, 0x09, 0x3e, 0x40, 0xd0, 0xf2, 0x3c,
  0x41, 0x1b, 0xa5, 0xbc, 0xf0, 0x55, 0x96, 0x3e, 0x38, 0x27, 0xa1, 0xbe,
  0xb5, 0xed, 0x92, 0xbd, 0xec, 0xbe, 0x2e, 0xbd, 0x1f, 0xc1, 0xa3, 0xbe,
  0x15, 0xa4, 0xe2, 0x3e, 0xfb, 0x3a, 0x97, 0x3e, 0x3a, 0xc7, 0x9f, 0x3c,
  0x66, 0x45, 0x07, 0x3e, 0x0f, 0x84, 0xfc, 0x3d, 0x59, 0xa3, 0x32, 0xbe,
  0x58, 0xe7, 0xc9, 0x3d, 0xad, 0xfe, 0x6e, 0xbd, 0x44, 0xe8, 0xa6, 0xbd,
  0xc9, 0xc9, 0x80, 0xbc, 0x1b, 0x5e, 0x25, 0x3e, 0x31, 0x8d, 0x91, 0x3e,
  0x6a, 0x0f, 0x06, 0x3e, 0x2b, 0x45, 0x68, 0xbe, 0xcc, 0xd3, 0x62, 0xbe,
  0xb9, 0xe0, 0xa7, 0xbe, 0x38, 0xeb, 0x88, 0x3e, 0x42, 0x25, 0xac, 0xbe,
  0xc4, 0x7c, 0x98, 0xbd, 0x45, 0x61, 0x29, 0x3e, 0x81, 0x86, 0x6f, 0xbe,
  0x83, 0xfa, 0x8a, 0xbe, 0x00, 0xa3, 0xa3, 0x3e, 0xa6, 0xe9, 0x3d, 0xbe,
  0x2f, 0x9d, 0x01, 0x3f, 0x43, 0x5c, 0x83, 0xbe, 0x7a, 0x18, 0x75, 0xbd,
  0x46, 0xbd, 0x89, 0x3e, 0x51, 0xa5, 0x4d, 0x3e, 0xf2, 0xb5, 0xe3, 0xbb,
  0xdc, 0xd7, 0xea, 0xbd, 0xda, 0xda, 0x01, 0x3e, 0x31, 0x16, 0xc0, 0xbe,
  0x4b, 0xe5, 0xb9, 0xbe, 0x77, 0xa1, 0xb7, 0xbe, 0x54, 0xc6, 0x62, 0xbd,
  0x05, 0x53, 0x96, 0xbe, 0xa7, 0x1e, 0x74, 0x3e, 0x88, 0xb9, 0x1d, 0x3e,
  0xc6, 0x01, 0xca, 0xbc, 0xdd, 0x8d, 0x5f, 0xbd, 0x58, 0x94, 0xa2, 0xbd,
  0xe0, 0x9f, 0x17, 0xbd, 0x4b, 0xa9, 0x91, 0x3e, 0x70, 0x7b, 0x4d, 0x3e,
  0xe1, 0x02, 0xdc, 0xbd, 0x27, 0xa6, 0xa6, 0xbe, 0xd0, 0x07, 0xa4, 0x3e,
  0x46, 0xc7, 0x51, 0xbe, 0x66, 0xcd, 0x7f, 0xbe, 0x84, 0x03, 0x9c, 0x3e,
  0xa3, 0x4a, 0x92, 0xbc, 0x5e, 0x29, 0xd1, 0xbd, 0x63, 0xb5, 0x2c, 0xbe,
  0x2e, 0x28, 0x32, 0x3d, 0x0a, 0x2a, 0x08, 0xbe, 0x9b, 0xfb, 0x48, 0x3d,
  0xe4, 0xd7, 0x1f, 0x3e, 0xbe, 0xff, 0x24, 0x3e, 0x48, 0xf4, 0x37, 0xbd,
  0x22, 0xbd, 0xe5, 0x3e, 0xa3, 0xe5, 0x45, 0x3e, 0x41, 0x90, 0x54, 0xbe,
  0x26, 0x58, 0xf0, 0xbe, 0x78, 0x81, 0x3f, 0x3d, 0x56, 0x65, 0xfe, 0xbd,
  0xc9, 0xb7, 0xca, 0xba, 0xed, 0xc8, 0xb6, 0x3e, 0xfe, 0x80, 0x94, 0x3e,
  0xca, 0x57, 0x44, 0xbe, 0xa0, 0xa9, 0x48, 0xbe, 0xb4, 0xf7, 0x9d, 0x3e,
  0x9d, 0xb1, 0x95, 0x3e, 0xb9, 0x6a, 0x4e, 0x3d, 0x44, 0xb9, 0x76, 0xbd,
  0xb5, 0xd4, 0xa5, 0xbe, 0x87, 0x96, 0x80, 0xbe, 0x21, 0x64, 0xc6, 0xbe,
  0xcf, 0xe4, 0xa7, 0xbc, 0x54, 0x3e, 0x0d, 0x3d, 0xab, 0x6f, 0x78, 0xbd,
  0x06, 0xee, 0xcd, 0x3e, 0x29, 0x71, 0x1d, 0xbd, 0x03, 0x90, 0x34, 0x3e,
  0xae, 0x2f, 0x6e, 0xbe, 0x12, 0x37, 0x31, 0x3d, 0x22, 0xe2, 0xaa, 0xbe,
  0xf2, 0xfa, 0xad, 0x3e, 0xbd, 0x67, 0x3d, 0x3e, 0xe4, 0x4e, 0xd2, 0xbe,
  0xb0, 0x64, 0x8f, 0x3e, 0x8b, 0xb3, 0x3a, 0x3e, 0xa5, 0xe0, 0x83, 0x3d,
  0xb8, 0xbe, 0x95, 0xbe, 0x7d, 0x41, 0x6b, 0xbe, 0xed, 0x4f, 0xb2, 0x3e,
  0xbd, 0xd6, 0x10, 0x3e, 0xa5, 0x78, 0x60, 0x3e, 0xa5, 0x6f, 0x7f, 0xbe,
  0xb4, 0xa3, 0xc7, 0xbe, 0xa0, 0xba, 0xac, 0x3d, 0x89, 0xcb, 0x75, 0x3d,
  0xd8, 0x5d, 0x55, 0xbd, 0xf4, 0x5c, 0xc4, 0xbe, 0xc2, 0xa4, 0x5a, 0x3e,
  0xd3, 0x78, 0x8f, 0xbe, 0xcd, 0xc5, 0xc5, 0x3c, 0xf9, 0x01, 0xa3, 0xbe,
  0x16, 0x23, 0xaa, 0xbd, 0xb5, 0xe8, 0x91, 0xbe, 0x51, 0x25, 0xa7, 0xbe,
  0x05, 0x4c, 0xae, 0x3e, 0x2a, 0x8b, 0xb0, 0xbe, 0x9a, 0xa9, 0x01, 0xbe,
  0xf2, 0x40, 0xb7, 0xbd, 0xe8, 0xbe, 0x22, 0x3e, 0xc0, 0x23, 0x5a, 0xbe,
  0xa6, 0xac, 0x06, 0x3e, 0x38, 0x05, 0x97, 0x3e, 0x3b, 0x95, 0x86, 0xbe,
  0x52, 0xef, 0xcf, 0xbd, 0xe6, 0x1c, 0xb0, 0xbe, 0xe3, 0x09, 0x11, 0x3d,
  0x78, 0x05, 0x3b, 0x3e, 0x00, 0x44, 0xa7, 0xbe, 0x37, 0x33, 0x41, 0xbd,
  0xe2, 0x09, 0xb3, 0x3d, 0x9f, 0x89, 0x43, 0xbe, 0x7e, 0x81, 0x8d, 0x3d,
  0x53, 0x8b, 0x36, 0x3e, 0x43, 0x68, 0x63, 0xbe, 0x99, 0x4a, 0x18, 0x3e,
  0xb1, 0x9d, 0x37, 0x3e, 0x5b, 0x04, 0x06, 0x3d, 0xc1, 0xad, 0x4c, 0x3e,
  0x85, 0x72, 0x9d, 0xbd, 0x02, 0xd5, 0x34, 0x3e, 0xca, 0x35, 0xb8, 0x3e,
  0x07, 0x42, 0x62, 0x3e, 0x6f, 0x5f, 0xbb, 0x3e, 0x05, 0x5f, 0xee, 0x3d,
  0x04, 0x52, 0x83, 0xbd, 0xdc, 0x5b, 0x8e, 0xbe, 0x08, 0xd1, 0xd1, 0x3b,
  0x5a, 0xe1, 0x02, 0xbe, 0x1e, 0x44, 0x4a, 0x3c, 0x03, 0xa4, 0x12, 0x3e,
  0x29, 0x10, 0x32, 0xbe, 0x71, 0x6c, 0xad, 0xbe, 0x72, 0xb1, 0x57, 0xbe,
  0x5c, 0x38, 0x8a, 0x3e, 0x45, 0x4d, 0xcd, 0xbe, 0x47, 0xc6, 0x35, 0x3d,
  0x92, 0x11, 0x3f, 0x3e, 0x5f, 0xcf, 0x16, 0xbd, 0x8e, 0xa2, 0x1b, 0x3d,
  0x08, 0xf4, 0x3e, 0x3e, 0xaa, 0x81, 0x90, 0x3d, 0x7d, 0xe2, 0xf1, 0x3d,
  0x8d, 0x9d, 0x69, 0x3e, 0x98, 0x7d, 0x24, 0xbf, 0xf0, 0x2f, 0x67, 0x3e,
  0xb2, 0x1e, 0xc5, 0x3e, 0xf7, 0x4c, 0xda, 0xbd, 0x2d, 0x0a, 0xef, 0x3b,
  0x27, 0x43, 0xdd, 0xbe, 0x41, 0x3c, 0x1b, 0xbe, 0x5d, 0xc6, 0x45, 0xbe,
  0x38, 0x1a, 0xc7, 0x3e, 0x46, 0x1d, 0x4a, 0xbe, 0xb5, 0x72, 0x89, 0xbe,
  0x4a, 0x15, 0x63, 0x3e, 0x5a, 0xab, 0x8d, 0x3e, 0xe2, 0x28, 0x81, 0x3e,
  0xd4, 0xa4, 0x28, 0x3e, 0xa5, 0xae, 0x86, 0x3e, 0x59, 0x15, 0xbc, 0xbe,
  0x45, 0xff, 0x8f, 0x3e, 0xa0, 0xca, 0x8f, 0x3e, 0x37, 0xf0, 0xa2, 0xbd,
  0xe6, 0x09, 0x87, 0x3e, 0x34, 0xf4, 0xf6, 0xbc, 0xac, 0xe9, 0x30, 0x3e,
  0x89, 0x4a, 0x8e, 0x3e, 0x58, 0x07, 0xdf, 0xbc, 0x9e, 0x33, 0x8c, 0xbd,
  0x8f, 0xc1, 0x51, 0xbc, 0xeb, 0x53, 0xc9, 0x3e, 0x20, 0x64, 0x4d, 0xbc,
  0xa9, 0x18, 0x0c, 0x3e, 0x0e, 0x99, 0x85, 0xbe, 0xbc, 0xce, 0x80, 0x3e,
  0x4e, 0x1b, 0xb2, 0xbd, 0x62, 0x19, 0x03, 0x3f, 0x87, 0xb7, 0xa5, 0xbe,
  0x49, 0xd9, 0xc4, 0x3d, 0xb1, 0x3a, 0xfe, 0xbe, 0x85, 0x7a, 0x99, 0xbe,
  0xe1, 0xc3, 0x06, 0x3d, 0xcd, 0xa7, 0x7d, 0xbe, 0x61, 0x91, 0x47, 0x3c,
  0x6b, 0x41, 0xf1, 0xbd, 0xd7, 0xaa, 0x65, 0x3e, 0x47, 0x5a, 0xdb, 0xbe,
  0x48, 0x43, 0x2b, 0xbe, 0xf3, 0xfe, 0x9f, 0xbe, 0xbd, 0xab, 0x6e, 0x3e,
  0xc8, 0x9f, 0xf2, 0xbc, 0x2e, 0xbb, 0x5f, 0x3d, 0x11, 0xb5, 0x08, 0x3e,
  0xaa, 0xbc, 0x5c, 0x3e, 0x3a, 0xa1, 0xb4, 0x3e, 0xe7, 0xdb, 0x52, 0xbe,
  0x93, 0x4a, 0xf4, 0x3c, 0xd1, 0xac, 0x49, 0x3d, 0xf7, 0xd1, 0x7f, 0x3e,
  0x3b, 0xe4, 0x36, 0x3e, 0xaa, 0xb8, 0x47, 0xbc, 0x06, 0x9e, 0x26, 0xbc,
  0xb0, 0x2c, 0x18, 0x3d, 0xcf, 0x31, 0xa0, 0x3d, 0x03, 0xcf, 0xc0, 0x3e,
  0x0d, 0xfd, 0x09, 0xbd, 0x17, 0x9f, 0xd3, 0x3e, 0x69, 0x82, 0xa6, 0x3d,
  0x7b, 0x2d, 0xc4, 0x3e, 0x38, 0xb4, 0x52, 0xbe, 0x4c, 0x79, 0x86, 0xbe,
  0xe3, 0x9c, 0x8a, 0x3d, 0x76, 0xeb, 0x8f, 0xbc, 0x7b, 0x5c, 0x54, 0xbe,
  0xdb, 0x24, 0x8b, 0xbe, 0xef, 0xf3, 0x21, 0xbe, 0x6e, 0x05, 0x4f, 0xbe,
  0xd2, 0x9f, 0xc1, 0x3d, 0x39, 0x45, 0x2d, 0xbe, 0x75, 0x19, 0xc3, 0xbe,
  0x8a, 0x53, 0x4c, 0xbe, 0xa3, 0x35, 0x01, 0x3d, 0xcf, 0xdd, 0xd0, 0xbd,
  0x4a, 0xa0, 0x26, 0xbe, 0x86, 0x56, 0x82, 0x3e, 0xaa, 0xd4, 0x8a, 0xbd,
  0xb8, 0x35, 0xd8, 0xbd, 0xb8, 0x6b, 0x02, 0xbe, 0x2f, 0x2d, 0x63, 0x3e,
  0xa7, 0x3c, 0x12, 0xbf, 0xbe, 0x12, 0x83, 0xbe, 0x39, 0x93, 0xb3, 0xbe,
  0x5a, 0x92, 0x87, 0xbe, 0x32, 0x95, 0xff, 0xff, 0x04, 0x00, 0x00, 0x00,
  0x40, 0x06, 0x00, 0x00, 0x25, 0x0c, 0x84, 0x3d, 0xbf, 0x0e, 0xaf, 0xbe,
  0xa6, 0xc2, 0xe9, 0xbe, 0x4b, 0x35, 0xee, 0x3d, 0x92, 0xc3, 0x3d, 0x3e,
  0xb1, 0xaf, 0xb1, 0x3e, 0x3b, 0xf8, 0x66, 0xbe, 0x84, 0x86, 0x1b, 0xbe,
  0xac, 0x5a, 0x63, 0xbd, 0xb7, 0x5d, 0x6c, 0xbd, 0x7d, 0xb0, 0x12, 0x3f,
  0x2c, 0x02, 0xd0, 0x3e, 0x31, 0xc3, 0x87, 0xbd, 0xaf, 0x1c, 0x85, 0xbd,
  0x4f, 0xed, 0x98, 0xbe, 0x1c, 0x8c, 0x53, 0x3e, 0xc9, 0x09, 0xe6, 0xbd,
  0x28, 0x26, 0x81, 0x3e, 0xef, 0x6d, 0x0d, 0xbf, 0x49, 0x85, 0xd9, 0xbd,
  0x1c, 0x29, 0xc8, 0x3e, 0xaf, 0xbd, 0xcf, 0xbd, 0x5b, 0x44, 0xb3, 0xbd,
  0x25, 0x5d, 0xe1, 0xbd, 0x4f, 0x97, 0x6a, 0xbe, 0x3c, 0xab, 0x5d, 0xbe,
  0x6a, 0x71, 0xac, 0xbe, 0x30, 0xb7, 0x6e, 0x3e, 0xc3, 0xa2, 0xba, 0xbd,
  0x7d, 0x70, 0xbc, 0xbd, 0x23, 0xa1, 0xff, 0xbd, 0xd1, 0x10, 0xda, 0xbe,
  0xc9, 0xaa, 0x14, 0xbe, 0xc2, 0xa9, 0x15, 0x3d, 0xd4, 0x93, 0xe2, 0xbd,
  0xda, 0xd9, 0x73, 0xbe, 0xc6, 0xed, 0x44, 0x3e, 0x82, 0x97, 0xf3, 0xbe,
  0xcb, 0x53, 0xe5, 0xbe, 0x7c, 0x4e, 0x30, 0xbf, 0x89, 0xfa, 0x99, 0x3d,
  0x47, 0xc7, 0x95, 0xbe, 0xd8, 0x41, 0xc8, 0x3e, 0x7f, 0x7b, 0x9e, 0x3e,
  0xbf, 0xe2, 0x15, 0xbe, 0x90, 0x4e, 0x80, 0xbe, 0x8e, 0x44, 0x41, 0xbf,
  0x55, 0xe7, 0xe2, 0xbe, 0x81, 0x1e, 0x2f, 0xbd, 0xbc, 0x5c, 0xb6, 0xbc,
  0x91, 0x6c, 0xb3, 0xbe, 0x8f, 0x3c, 0xdb, 0x3e, 0x7b, 0x44, 0xb6, 0x3c,
  0x4b, 0x2f, 0x31, 0xbe, 0x47, 0x92, 0xe3, 0x3d, 0x4b, 0xe1, 0x80, 0x3d,
  0xaf, 0x69, 0xe1, 0x3e, 0x41, 0x80, 0xd3, 0x3c, 0xcc, 0xb1, 0xab, 0xbd,
  0x9c, 0x82, 0xa5, 0x3d, 0x9c, 0xac, 0xa0, 0x3e, 0x07, 0x2f, 0xe0, 0xbe,
  0xf7, 0xb4, 0xbe, 0xbd, 0xc4, 0x1c, 0xf1, 0xbd, 0xf4, 0xa7, 0x10, 0x3f,
  0x06, 0x64, 0x05, 0xbf, 0x81, 0x87, 0x0f, 0xbe, 0x8f, 0x62, 0xf3, 0x3d,
  0xc6, 0xf4, 0x19, 0x3f, 0x3b, 0xc2, 0x5b, 0x3e, 0x7e, 0xf7, 0xd7, 0xbd,
  0xf0, 0x84, 0x0c, 0x3e, 0xe7, 0xb5, 0x4d, 0x3e, 0xc2, 0xa3, 0x9b, 0x3d,
  0xa8, 0x10, 0x68, 0x3e, 0x7a, 0xcd, 0xa1, 0xbd, 0x47, 0xbd, 0xb5, 0x3e,
  0x03, 0x36, 0xb9, 0x3e, 0x5a, 0xca, 0xb4, 0xbe, 0x62, 0x2f, 0xee, 0x3d,
  0x56, 0x13, 0xda, 0x3c, 0x16, 0x12, 0xf9, 0x3d, 0xcc, 0xb1, 0x01, 0xbf,
  0xb1, 0xd6, 0x80, 0x3e, 0x8a, 0xf1, 0x17, 0x3f, 0xc4, 0x15, 0xdd, 0xbd,
  0x34, 0x77, 0xe8, 0x3e, 0xda, 0x81, 0xf0, 0xbe, 0x87, 0xe6, 0xfa, 0xbc,
  0xbf, 0x80, 0x25, 0xbd, 0x93, 0xef, 0xce, 0xbe, 0x7c, 0x8f, 0x8b, 0xbe,
  0x1f, 0x5e, 0x1b, 0xbe, 0xb9, 0x97, 0x89, 0xbe, 0xcf, 0xa6, 0x64, 0xbd,
  0x1f, 0x54, 0x8d, 0xbd, 0xc3, 0xb0, 0xf2, 0x3e, 0x5c, 0xdb, 0xb4, 0x3d,
  0x1d, 0xac, 0xd1, 0x3d, 0x5f, 0x20, 0xca, 0xbd, 0xae, 0xf0, 0xa1, 0xbe,
  0x21, 0xf2, 0x8f, 0x3e, 0x21, 0x1e, 0x2d, 0x3d, 0x23, 0x2b, 0x09, 0xbe,
  0x30, 0xe2, 0xc7, 0x3d, 0xe5, 0x97, 0x16, 0x3f, 0x59, 0x95, 0xc5, 0xbe,
  0x9d, 0xc3, 0xb7, 0xbd, 0xf9, 0xc5, 0x75, 0x3e, 0xdb, 0x6e, 0xe5, 0x3e,
  0x94, 0xb1, 0x22, 0xbf, 0xcf, 0xba, 0xb5, 0xbd, 0x9d, 0x30, 0x81, 0xbe,
  0x41, 0xa8, 0x9b, 0x3e, 0x5c, 0x9f, 0x22, 0xbd, 0x89, 0xff, 0xd1, 0x3d,
  0xbe, 0x63, 0xa2, 0xbd, 0xb7, 0xd2, 0x02, 0xbd, 0xe0, 0x5b, 0xb7, 0xbd,
  0x18, 0x0e, 0x7f, 0xbe, 0x58, 0x98, 0xca, 0xbe, 0xc6, 0xc7, 0x03, 0xbf,
  0x42, 0x0e, 0x13, 0x3f, 0x87, 0x1a, 0xed, 0x3d, 0x07, 0x98, 0x73, 0x3e,
  0x8d, 0xe0, 0xb7, 0x3d, 0x2f, 0xb4, 0xfa, 0x3e, 0x85, 0xd6, 0xda, 0x3c,
  0x97, 0xb5, 0xdc, 0xbc, 0x49, 0x88, 0x92, 0xbe, 0x19, 0x8f, 0x2f, 0x3e,
  0x04, 0x7d, 0x31, 0x3e, 0xe0, 0x0a, 0x51, 0xbe, 0x77, 0x96, 0xf1, 0xbe,
  0xe2, 0x96, 0x73, 0x3e, 0xd8, 0xee, 0x61, 0xbd, 0x5e, 0x3b, 0x6a, 0x3d,
  0x7c, 0x6e, 0x67, 0xbe, 0x44, 0x95, 0x59, 0x3e, 0x92, 0x70, 0x58, 0xbe,
  0x9b, 0x7e, 0x10, 0xbe, 0xe9, 0xbc, 0x57, 0x3e, 0x98, 0x2f, 0x06, 0xbf,
  0x65, 0x19, 0x93, 0xbd, 0x1f, 0x2b, 0x19, 0xbf, 0x2e, 0x6d, 0x64, 0xbe,
  0xac, 0x1e, 0x1b, 0x3d, 0x64, 0xf7, 0x9f, 0x3e, 0xf0, 0x2f, 0x4c, 0x3e,
  0xf6, 0xf5, 0x7f, 0xbe, 0x9c, 0xea, 0x85, 0x3e, 0x96, 0x11, 0x6a, 0x3e,
  0xbd, 0xe2, 0x18, 0x3e, 0x6e, 0x2d, 0x7b, 0xbe, 0x3e, 0x11, 0x15, 0x3f,
  0xee, 0x16, 0x8f, 0x3d, 0x49, 0x5e, 0xd9, 0x3d, 0x82, 0x44, 0x55, 0xbe,
  0xb5, 0xb3, 0xcc, 0x3d, 0x01, 0xa8, 0x93, 0xbe, 0xfd, 0xca, 0xe1, 0xbd,
  0xd8, 0xa3, 0x48, 0xbe, 0x59, 0xc6, 0xb2, 0x3e, 0x42, 0x10, 0x2a, 0xbf,
  0xe0, 0xd8, 0x14, 0xbe, 0xc4, 0x3a, 0xbd, 0x3e, 0xc6, 0x53, 0x9f, 0xbb,
  0x8c, 0x33, 0xb1, 0xbe, 0x81, 0x98, 0x18, 0x3e, 0x8d, 0x96, 0x69, 0x3d,
  0x03, 0x8b, 0x2e, 0x3e, 0x8e, 0x22, 0xeb, 0xbe, 0x70, 0x5a, 0x90, 0x3e,
  0xd8, 0x2e, 0x42, 0xbc, 0x0b, 0xc8, 0x52, 0x3e, 0x26, 0xea, 0x4b, 0x3c,
  0x9a, 0x2c, 0x82, 0x3d, 0x65, 0x89, 0x90, 0x3e, 0xd5, 0x9f, 0x51, 0xbe,
  0xfd, 0xb8, 0xc8, 0xbe, 0x2a, 0x4e, 0x85, 0x3e, 0x80, 0x36, 0x1c, 0x3e,
  0x03, 0xb2, 0xb7, 0x3e, 0x7e, 0xef, 0x45, 0x3e, 0x9e, 0xde, 0x46, 0xbd,
  0xec, 0x05, 0x81, 0x3c, 0x5a, 0xf3, 0x95, 0xbc, 0x75, 0xa7, 0x29, 0xbf,
  0x26, 0x86, 0x0d, 0x3e, 0x12, 0x14, 0x92, 0x3e, 0x9a, 0x6a, 0xa6, 0x3e,
  0x38, 0x1b, 0xef, 0x3d, 0x7e, 0x0a, 0x86, 0xbe, 0xc9, 0x17, 0x84, 0x3e,
  0x93, 0xd3, 0x2c, 0x3e, 0x68, 0xac, 0x14, 0xbe, 0x19, 0x26, 0x01, 0xbf,
  0xf9, 0x33, 0x61, 0xbe, 0x3d, 0xae, 0x10, 0x3e, 0xe4, 0x74, 0x3c, 0xbe,
  0x96, 0xac, 0x1a, 0x3e, 0x70, 0x94, 0x4b, 0x3e, 0xd6, 0x01, 0x11, 0x3e,
  0x49, 0xd1, 0xd8, 0x3e, 0xf2, 0x37, 0x5c, 0x3d, 0xae, 0x19, 0x55, 0xbe,
  0x39, 0x64, 0x45, 0xbe, 0xdb, 0x05, 0x1c, 0x3e, 0x8c, 0xeb, 0x1e, 0x3f,
  0xe7, 0xa5, 0x8e, 0xbd, 0xbc, 0xba, 0xfd, 0xbd, 0x2f, 0x1f, 0x24, 0x3e,
  0xde, 0x40, 0x23, 0x3e, 0x5e, 0x95, 0x9e, 0xbe, 0x4d, 0x08, 0x45, 0xbf,
  0x65, 0xd7, 0xcb, 0xbe, 0xac, 0x3e, 0x3e, 0x3e, 0xf3, 0x76, 0x1c, 0x3e,
  0x02, 0xe1, 0x36, 0x3e, 0x1f, 0x0d, 0xb5, 0xbd, 0x78, 0xbe, 0x70, 0x3e,
  0x13, 0xfa, 0x9f, 0x3d, 0x21, 0x5c, 0x44, 0x3d, 0x86, 0x13, 0xa4, 0x3d,
  0x2b, 0x83, 0x83, 0x3e, 0x8f, 0xa4, 0x11, 0x3e, 0xbc, 0x60, 0x08, 0x3e,
  0x7e, 0x8a, 0x26, 0xbe, 0xfa, 0xad, 0x15, 0xbd, 0x1c, 0x53, 0x56, 0xbf,
  0x07, 0x5a, 0x92, 0xbd, 0x7d, 0x06, 0x1f, 0x3f, 0xc7, 0xa5, 0x04, 0xbd,
  0xf0, 0xaa, 0xa1, 0x3d, 0x75, 0xe5, 0x32, 0x3d, 0x10, 0xbe, 0xdc, 0x3e,
  0x63, 0x23, 0x0f, 0xbe, 0xb7, 0x31, 0x8d, 0x3e, 0xa8, 0x65, 0xc7, 0xbe,
  0x75, 0x0d, 0xbb, 0xbe, 0x1f, 0x6c, 0xb7, 0xbd, 0x8e, 0xa8, 0x33, 0x3d,
  0x0b, 0x9e, 0x8b, 0xbd, 0xe1, 0xc0, 0x07, 0x3d, 0xf9, 0x6b, 0xe7, 0xbd,
  0x19, 0x40, 0xc2, 0xbe, 0x66, 0xa5, 0x10, 0x3f, 0x57, 0x2f, 0xcf, 0xbd,
  0x95, 0xcd, 0x72, 0x3e, 0xcc, 0x2f, 0xa1, 0x3e, 0x94, 0x23, 0x34, 0x3b,
  0x0e, 0xc3, 0xa2, 0xbe, 0x31, 0x70, 0xba, 0x3e, 0x0d, 0x45, 0x03, 0xbf,
  0x49, 0x8b, 0x55, 0xbd, 0x98, 0xc3, 0xf8, 0x3e, 0xf9, 0x08, 0x30, 0xbe,
  0xaa, 0x72, 0x27, 0xbe, 0xd2, 0xfc, 0x5b, 0xbe, 0xc4, 0x51, 0x8c, 0x3d,
  0x22, 0xf5, 0x1a, 0x3f, 0xea, 0xf9, 0xe1, 0xbe, 0x6a, 0x51, 0x17, 0xbf,
  0x31, 0x2e, 0x94, 0xbe, 0x7e, 0x48, 0x8b, 0x3c, 0xdb, 0xd8, 0x4f, 0x3e,
  0x9f, 0x88, 0x02, 0xbe, 0x46, 0x15, 0x0b, 0xbc, 0x9c, 0x0a, 0x09, 0x3f,
  0xad, 0x76, 0x94, 0x3e, 0x80, 0x3c, 0xcb, 0xbe, 0xf1, 0x9c, 0xc6, 0x3c,
  0x21, 0x90, 0xa8, 0xbe, 0x4e, 0xaf, 0x2c, 0x3e, 0x55, 0xfa, 0x9b, 0xbd,
  0x7e, 0xec, 0x6d, 0x3d, 0xae, 0x24, 0xc7, 0xbe, 0x4d, 0xee, 0xb9, 0x3d,
  0x16, 0x69, 0x85, 0x3e, 0x3a, 0x6c, 0x0a, 0x3e, 0x7a, 0x37, 0x9f, 0x3e,
  0xde, 0x2e, 0xa4, 0x3e, 0x5c, 0x65, 0xbc, 0x3e, 0x40, 0xdf, 0x33, 0xbe,
  0x20, 0x71, 0x13, 0x3e, 0xfa, 0x0d, 0xdb, 0x3c, 0xd3, 0x16, 0x9d, 0x3d,
  0xa4, 0x4b, 0x08, 0xbe, 0xe1, 0xce, 0xb5, 0x3e, 0x36, 0x9b, 0x73, 0xbd,
  0xf4, 0x58, 0x62, 0x3e, 0x2e, 0xbc, 0x46, 0x3e, 0x6d, 0xe3, 0xf3, 0xbd,
  0x05, 0xaa, 0x1d, 0xbe, 0x4e, 0x20, 0x10, 0xbe, 0xf4, 0xeb, 0xb6, 0x3e,
  0x3c, 0x42, 0xaf, 0x3e, 0xbd, 0x93, 0xe4, 0xbe, 0xa2, 0x26, 0x68, 0xbd,
  0x6b, 0x99, 0xf5, 0x3e, 0xdd, 0xa8, 0xa6, 0x3e, 0xff, 0x3e, 0x8b, 0xbe,
  0x6e, 0x84, 0xe3, 0x3d, 0xa1, 0xf3, 0xbc, 0x3e, 0x01, 0x3b, 0xd6, 0x3e,
  0x6a, 0x7f, 0x75, 0xbe, 0x54, 0x4a, 0xe2, 0xbe, 0x1a, 0xe2, 0x4d, 0x3e,
  0xd0, 0x24, 0x00, 0x3d, 0xf5, 0x59, 0xfb, 0xbd, 0x41, 0x31, 0x36, 0x3e,
  0x51, 0x72, 0xa8, 0xbd, 0xc6, 0xdf, 0x40, 0xbd, 0xf3, 0x64, 0x98, 0xbd,
  0xdf, 0x0e, 0x40, 0xbc, 0x58, 0x5d, 0x29, 0x3f, 0x96, 0xa7, 0x44, 0x3c,
  0xc0, 0x98, 0xda, 0xbc, 0xdd, 0x23, 0xa9, 0x3e, 0x0d, 0x4e, 0xec, 0xbe,
  0x71, 0x17, 0x7e, 0x3d, 0xae, 0xfa, 0xa6, 0x3e, 0x68, 0x5b, 0x2c, 0x3d,
  0x40, 0xe8, 0xe0, 0xbe, 0x7a, 0x78, 0xa5, 0x3d, 0x84, 0xfa, 0xaf, 0xbe,
  0x2f, 0x5f, 0x81, 0x3e, 0x7d, 0x23, 0x6f, 0x3e, 0x45, 0x4c, 0x8f, 0xbe,
  0xdf, 0x2d, 0x27, 0x3e, 0xd0, 0xa1, 0x8a, 0x3c, 0xaf, 0x75, 0xa3, 0x3e,
  0x96, 0x65, 0x82, 0xbd, 0xe5, 0x97, 0x1f, 0xbf, 0xea, 0x39, 0x5b, 0x3e,
  0x8f, 0x7e, 0xbc, 0xbc, 0xbc, 0xe4, 0xa9, 0x3e, 0xa0, 0x0d, 0x48, 0x3e,
  0xc3, 0x94, 0x93, 0xbc, 0x5a, 0xaf, 0xab, 0xbe, 0x4f, 0x5f, 0x0d, 0xbf,
  0x03, 0x76, 0x80, 0x3d, 0xac, 0x9a, 0x51, 0xbe, 0x36, 0x31, 0xe9, 0xbe,
  0x4a, 0x64, 0x26, 0xbd, 0xf3, 0xa4, 0xb9, 0xbe, 0xd4, 0xc2, 0x98, 0x3e,
  0xff, 0x16, 0x65, 0x3d, 0x78, 0xe2, 0x50, 0x3e, 0x3e, 0xff, 0xc7, 0x3d,
  0x7b, 0x80, 0x9b, 0x3d, 0x54, 0x96, 0x76, 0xbd, 0xd7, 0x9b, 0xfd, 0xbd,
  0x83, 0xf9, 0xdc, 0x3e, 0x96, 0xfa, 0x22, 0xbe, 0xb3, 0x16, 0xad, 0x3e,
  0xc8, 0xc5, 0x81, 0x3e, 0x36, 0x22, 0xc3, 0x3d, 0x3f, 0x28, 0x27, 0x3e,
  0x92, 0xdc, 0xd1, 0xbe, 0x95, 0x8a, 0xb9, 0x3d, 0x2d, 0xe9, 0x42, 0xbe,
  0x05, 0xcd, 0xf3, 0xbd, 0xbd, 0x9c, 0x8c, 0xbd, 0xef, 0x9f, 0xca, 0x3e,
  0x2f, 0x39, 0x5d, 0x3e, 0x2e, 0x6a, 0x7f, 0x3e, 0x53, 0x37, 0x22, 0xbe,
  0x80, 0x2a, 0xb3, 0xbe, 0x21, 0x2b, 0x35, 0x3d, 0x5d, 0x09, 0x39, 0xbe,
  0xec, 0xad, 0xe3, 0x3e, 0xec, 0x14, 0x03, 0x3f, 0x3a, 0xd9, 0x6a, 0x3d,
  0x22, 0xfd, 0x8c, 0x3e, 0xba, 0x8f, 0xd3, 0xbd, 0x1a, 0x75, 0x79, 0x3e,
  0x26, 0x40, 0x07, 0xbf, 0x07, 0x56, 0xf2, 0x3e, 0x60, 0x6f, 0x2d, 0xbe,
  0xe2, 0x8f, 0xb4, 0xbe, 0x47, 0xda, 0xb4, 0xbd, 0x58, 0x43, 0x88, 0xbe,
  0x48, 0x40, 0x0c, 0xbf, 0x7f, 0x61, 0xbb, 0x3e, 0x24, 0x69, 0x04, 0xbe,
  0x50, 0x71, 0xef, 0xbe, 0x72, 0x2d, 0xb6, 0xbe, 0x9d, 0xae, 0x3b, 0xbe,
  0xcf, 0x61, 0xcc, 0xbc, 0x55, 0x57, 0x43, 0x3e, 0x09, 0xd2, 0x32, 0xbe,
  0x4b, 0x3b, 0xa3, 0xbd, 0x43, 0x0f, 0x89, 0xbd, 0x72, 0x4c, 0x8d, 0xbe,
  0x3c, 0x33, 0x95, 0xbe, 0x34, 0x8b, 0x04, 0xbf, 0xc4, 0x94, 0x22, 0xbe,
  0x3e, 0x12, 0xf3, 0xbd, 0x53, 0x0d, 0x14, 0xbd, 0x7e, 0x9b, 0xff, 0xff,
  0x04, 0x00, 0x00, 0x00, 0x50, 0x00, 0x00, 0x00, 0x6c, 0x5e, 0x59, 0x3d,
  0x0d, 0x3c, 0x22, 0x3d, 0x38, 0xdc, 0x82, 0xbc, 0x2f, 0xbe, 0x11, 0xbe,
  0xc5, 0xff, 0x2d, 0xbe, 0xce, 0x45, 0x44, 0xbd, 0x8a, 0x58, 0x35, 0xbd,
  0x12, 0x93, 0x54, 0xbd, 0x3c, 0xb2, 0xe4, 0xbd, 0x52, 0x2e, 0xd4, 0xbc,
  0x37, 0xaf, 0x82, 0x3d, 0x60, 0x2a, 0x35, 0xbe, 0x58, 0xd5, 0x1c, 0xbd,
  0xfe, 0x93, 0x70, 0xbd, 0x2a, 0xe6, 0x3f, 0xbc, 0x74, 0x7b, 0x65, 0xbe,
  0xed, 0x44, 0x70, 0xbc, 0x42, 0xba, 0x64, 0xbe, 0x5d, 0x46, 0x62, 0x3c,
  0xe2, 0x2d, 0x6f, 0x3e, 0xda, 0x9b, 0xff, 0xff, 0x04, 0x00, 0x00, 0x00,
  0x04, 0x00, 0x00, 0x00, 0x01, 0x00, 0x00, 0x00, 0xea, 0x9b, 0xff, 0xff,
  0x04, 0x00, 0x00, 0x00, 0x08, 0x00, 0x00, 0x00, 0xff, 0xff, 0xff, 0xff,
  0x14, 0x00, 0x00, 0x00, 0xfe, 0x9b, 0xff, 0xff, 0x04, 0x00, 0x00, 0x00,
  0x04, 0x00, 0x00, 0x00, 0x00, 0x00, 0x00, 0x00, 0x28, 0x7e, 0xff, 0xff,
  0x2c, 0x7e, 0xff, 0xff, 0x30, 0x7e, 0xff, 0xff, 0x34, 0x7e, 0xff, 0xff,
  0x38, 0x7e, 0xff, 0xff, 0x3c, 0x7e, 0xff, 0xff, 0x40, 0x7e, 0xff, 0xff,
  0x44, 0x7e, 0xff, 0xff, 0x48, 0x7e, 0xff, 0xff, 0x4c, 0x7e, 0xff, 0xff,
  0x50, 0x7e, 0xff, 0xff, 0x54, 0x7e, 0xff, 0xff, 0x58, 0x7e, 0xff, 0xff,
  0x5c, 0x7e, 0xff, 0xff, 0x60, 0x7e, 0xff, 0xff, 0x64, 0x7e, 0xff, 0xff,
  0x68, 0x7e, 0xff, 0xff, 0x6c, 0x7e, 0xff, 0xff, 0x70, 0x7e, 0xff, 0xff,
  0x74, 0x7e, 0xff, 0xff, 0x78, 0x7e, 0xff, 0xff, 0x62, 0x9c, 0xff, 0xff,
  0x04, 0x00, 0x00, 0x00, 0x40, 0x06, 0x00, 0x00, 0x64, 0x1c, 0x77, 0x3e,
  0x52, 0x72, 0x19, 0x3e, 0x80, 0x38, 0x74, 0xbe, 0x6b, 0xd8, 0x8f, 0x3e,
  0x9c, 0x65, 0xaf, 0xbe, 0xcd, 0x0d, 0xdf, 0xbe, 0xec, 0xa1, 0x09, 0xbe,
  0xdd, 0x6e, 0x94, 0xbd, 0x0a, 0x8c, 0x72, 0x3e, 0x8e, 0x3f, 0x41, 0xbd,
  0x63, 0x78, 0x95, 0x3b, 0xd9, 0xe3, 0x5b, 0x3d, 0x96, 0xe0, 0x94, 0xbe,
  0x11, 0x53, 0xc3, 0x3e, 0x34, 0x5f, 0xe6, 0x3d, 0xfc, 0xc1, 0xe3, 0x3d,
  0x6b, 0x45, 0x75, 0x3e, 0x55, 0x82, 0x8b, 0xbc, 0x4a, 0x2f, 0xba, 0xbe,
  0x16, 0xb6, 0x80, 0x3d, 0x00, 0x59, 0x62, 0x3e, 0x3f, 0xbc, 0xa8, 0x3e,
  0x9b, 0x72, 0x04, 0x3e, 0x7a, 0xa2, 0x33, 0x3e, 0x82, 0x92, 0x76, 0x3e,
  0x69, 0xb5, 0xa9, 0xbd, 0x75, 0xff, 0x05, 0xbe, 0x4d, 0x81, 0x83, 0xbe,
  0xfb, 0xde, 0x90, 0xbe, 0xa5, 0xb3, 0x1c, 0x38, 0x57, 0x9c, 0x63, 0xbe,
  0x25, 0xa3, 0x01, 0xbd, 0x21, 0x2a, 0x0c, 0xbf, 0x1a, 0x43, 0x82, 0xbe,
  0xee, 0x0f, 0x44, 0x3e, 0x0d, 0x42, 0x37, 0xbe, 0xd5, 0x4c, 0xa9, 0xbe,
  0xce, 0x26, 0x19, 0xbd, 0xa3, 0x25, 0xde, 0xbd, 0x8c, 0xa9, 0x99, 0x3c,
  0x2e, 0x8e, 0x63, 0xbd, 0xe4, 0xed, 0xe9, 0xbc, 0x78, 0x00, 0x10, 0xbe,
  0xb0, 0x6a, 0x7c, 0xbe, 0x17, 0x31, 0x47, 0x3e, 0xaf, 0x46, 0x7e, 0x3e,
  0xf6, 0x2c, 0x90, 0x3d, 0x60, 0xe2, 0x47, 0x3c, 0x10, 0xb9, 0x11, 0xbe,
  0xfa, 0xfb, 0xb8, 0x3e, 0x96, 0x00, 0x32, 0xbb, 0x1a, 0xb7, 0x17, 0x3e,
  0x11, 0x89, 0x9d, 0xbd, 0xc3, 0xb7, 0x2b, 0xbd, 0x02, 0xaa, 0x14, 0xbd,
  0xbf, 0x56, 0x85, 0xbc, 0x40, 0x1a, 0xa2, 0xbe, 0xab, 0xa4, 0x97, 0xbe,
  0x9a, 0x24, 0xd5, 0xbe, 0x7f, 0xee, 0xce, 0xbd, 0x2f, 0x55, 0x55, 0xbe,
  0xa8, 0x9f, 0xd2, 0xbd, 0xfa, 0xf2, 0x74, 0x3d, 0xe5, 0x58, 0xf5, 0x3e,
  0x6d, 0x18, 0xc0, 0x3d, 0x22, 0xce, 0x6e, 0xbe, 0xa4, 0x04, 0x19, 0x3e,
  0xde, 0xa0, 0x10, 0xbc, 0x4e, 0x8b, 0xd0, 0xbe, 0x94, 0x30, 0x96, 0x3e,
  0xb4, 0x69, 0x31, 0xbe, 0xee, 0x32, 0x3e, 0x3c, 0x60, 0xb8, 0x94, 0xbe,
  0x97, 0x8f, 0x6d, 0x3d, 0x32, 0x3e, 0xb4, 0xbe, 0xc2, 0x29, 0x74, 0xbe,
  0xaa, 0x8b, 0x28, 0xbe, 0x4f, 0xe8, 0xf8, 0xbe, 0x83, 0xfd, 0x35, 0x3e,
  0x27, 0x08, 0xed, 0xbd, 0x11, 0x56, 0x4e, 0xbe, 0x11, 0xeb, 0x1c, 0xbe,
  0xb3, 0xde, 0x16, 0xbe, 0x18, 0x39, 0xa8, 0x3e, 0x1f, 0x6a, 0x82, 0x3e,
  0x6e, 0xc6, 0x55, 0x3e, 0xeb, 0x43, 0x92, 0x3e, 0x94, 0x3a, 0x42, 0x3e,
  0xc7, 0xe3, 0xf0, 0x3d, 0x85, 0xbc, 0x93, 0x3e, 0x8d, 0x1f, 0xa5, 0x3e,
  0xa1, 0x18, 0x68, 0x3e, 0xd8, 0xd9, 0xfd, 0xbd, 0x49, 0x6b, 0x8c, 0x3e,
  0xe9, 0xc7, 0xf8, 0xbc, 0x39, 0x77, 0x48, 0xbe, 0x05, 0x38, 0xcb, 0x3d,
  0xb2, 0x6e, 0xda, 0x3c, 0x72, 0xab, 0xbc, 0x3e, 0x21, 0x32, 0x80, 0xbe,
  0xde, 0x68, 0x9e, 0x3e, 0xa4, 0x4b, 0x90, 0x3e, 0x61, 0x8c, 0xb7, 0xbe,
  0x5e, 0x54, 0x4b, 0x3e, 0x6d, 0x32, 0x89, 0xbd, 0x50, 0xa9, 0x08, 0x3d,
  0x57, 0x71, 0x3e, 0x3e, 0x31, 0xee, 0x2b, 0x3e, 0xf3, 0xaa, 0xfa, 0x3d,
  0xb9, 0x35, 0x3e, 0xbe, 0x1a, 0x68, 0x64, 0xbe, 0xa9, 0x99, 0x2b, 0x3d,
  0x5f, 0x54, 0x27, 0x3e, 0x4b, 0xae, 0x83, 0xbd, 0xd4, 0xda, 0x49, 0xbd,
  0x3f, 0xb8, 0xd4, 0xbd, 0xc9, 0x12, 0x83, 0x3e, 0xc9, 0xf4, 0x46, 0x3e,
  0x16, 0x6d, 0x9b, 0x3e, 0x53, 0x93, 0xb7, 0x3e, 0xc2, 0x90, 0xb0, 0xbd,
  0x37, 0x9f, 0x0d, 0x3f, 0x27, 0xe2, 0x3e, 0x3d, 0xac, 0xb5, 0x90, 0xbe,
  0x19, 0xd4, 0x8e, 0xbe, 0xe0, 0x82, 0x07, 0x3e, 0x3a, 0x3b, 0x16, 0xbe,
  0x82, 0xd1, 0xb4, 0xbb, 0x8f, 0xee, 0x30, 0x3e, 0x7f, 0x7e, 0xda, 0xbe,
  0xa4, 0xbf, 0x56, 0xbb, 0xa9, 0x45, 0x72, 0xbe, 0xee, 0xca, 0xdc, 0x3c,
  0xec, 0x82, 0x3a, 0xbd, 0xc2, 0x7d, 0x50, 0xbe, 0x41, 0xab, 0x2e, 0xbe,
  0x76, 0xed, 0x90, 0xbd, 0xd8, 0xe4, 0xa9, 0xbe, 0x77, 0x63, 0x8a, 0xbe,
  0x21, 0xfc, 0x9c, 0x3b, 0xb8, 0x36, 0xc2, 0xbe, 0x3a, 0x02, 0x4b, 0x3e,
  0xb9, 0x49, 0xa0, 0x3d, 0x4f, 0x9e, 0x6e, 0xbd, 0xf3, 0xe8, 0x9c, 0xbe,
  0x4d, 0xb0, 0xea, 0xbd, 0x24, 0xee, 0x0e, 0xbe, 0x73, 0x95, 0x02, 0xbd,
  0x28, 0xe7, 0x33, 0x3e, 0x1b, 0x53, 0x69, 0x3e, 0x5d, 0xaa, 0x48, 0xbc,
  0x55, 0x2c, 0x6c, 0xbe, 0xed, 0xc6, 0x00, 0x3e, 0x94, 0x2a, 0x89, 0x3e,
  0x16, 0x58, 0x13, 0x3e, 0x12, 0xee, 0x72, 0x3e, 0x8b, 0x36, 0x04, 0x3e,
  0x4d, 0x03, 0xbe, 0x3b, 0xa7, 0x9e, 0x46, 0x3e, 0x56, 0x25, 0x4b, 0x3e,
  0xea, 0xa5, 0xd7, 0x3e, 0x60, 0x50, 0xc9, 0xbe, 0x32, 0xb0, 0x91, 0xbe,
  0x61, 0x33, 0xc1, 0x3e, 0xf6, 0xa4, 0x7e, 0xbd, 0xcf, 0x3f, 0xb5, 0xbd,
  0x72, 0xe5, 0x9f, 0xbe, 0xb5, 0x34, 0xc7, 0xbc, 0xc3, 0x97, 0x3c, 0x3d,
  0x8d, 0x87, 0xec, 0x3e, 0xbd, 0xf5, 0x78, 0xbe, 0x0e, 0x9a, 0xa8, 0xbe,
  0xa5, 0xaa, 0xe0, 0x3e, 0x66, 0xf2, 0xa3, 0xbd, 0xeb, 0x0e, 0x97, 0x3d,
  0xc9, 0x2e, 0x5e, 0x3e, 0x8d, 0xce, 0x3a, 0x3e, 0xbd, 0x36, 0x43, 0xbd,
  0x5c, 0xbc, 0x74, 0xbe, 0x3b, 0x7d, 0x99, 0x3e, 0x7d, 0xf0, 0x47, 0xbe,
  0x26, 0xbf, 0x88, 0x3d, 0x40, 0xa4, 0x91, 0x3e, 0xeb, 0xd1, 0x6e, 0xbe,
  0x91, 0x17, 0xe1, 0x3d, 0xd6, 0x98, 0x08, 0xbe, 0x58, 0x20, 0x5e, 0x3e,
  0x88, 0xee, 0x3b, 0x3e, 0x96, 0x95, 0x55, 0xbd, 0xcb, 0xd7, 0x16, 0xbe,
  0x7b, 0xfc, 0x2e, 0xbe, 0x4e, 0xd2, 0x23, 0xbe, 0xe6, 0xdc, 0xfb, 0xbd,
  0x8a, 0xdf, 0xad, 0xbe, 0xee, 0x21, 0xe2, 0xbe, 0xfe, 0x20, 0xf5, 0xbd,
  0xea, 0xaa, 0x0b, 0xbd, 0x2e, 0xdc, 0x92, 0x3d, 0x13, 0x77, 0x4a, 0xbe,
  0x11, 0x64, 0x79, 0xbe, 0x09, 0x75, 0xf2, 0x3e, 0x7f, 0x72, 0x9e, 0x3c,
  0xb5, 0x27, 0xba, 0xbe, 0x00, 0x93, 0x76, 0xbe, 0x67, 0xee, 0x98, 0x3e,
  0x80, 0x69, 0xc0, 0x3e, 0x9c, 0x4f, 0x58, 0x3e, 0xea, 0x69, 0x03, 0x3e,
  0x08, 0xfc, 0x20, 0xbe, 0xe6, 0x3a, 0x95, 0x3e, 0x2a, 0x9f, 0xbf, 0x3e,
  0x1f, 0xa9, 0x9d, 0xbd, 0x5d, 0x55, 0xfd, 0x3d, 0xd5, 0x17, 0x3a, 0xbe,
  0x72, 0xf7, 0xb4, 0x3d, 0x89, 0x83, 0xaf, 0xbe, 0x8b, 0x36, 0x86, 0xbd,
  0xc2, 0x2d, 0x6d, 0xbd, 0x9b, 0x2d, 0x75, 0xbe, 0x25, 0xc2, 0xb7, 0xbe,
  0x1e, 0xd0, 0xd2, 0x3e, 0x6b, 0xcd, 0x38, 0xbe, 0x1c, 0x84, 0xef, 0x3d,
  0x86, 0x0f, 0x63, 0x3e, 0x64, 0xa6, 0x1b, 0xbc, 0xa9, 0x27, 0xf5, 0x3e,
  0x1c, 0x40, 0x33, 0x3e, 0x5c, 0x9a, 0x10, 0x3e, 0xed, 0x2a, 0x32, 0x3e,
  0xf6, 0x98, 0x84, 0xbe, 0x1d, 0x43, 0x9d, 0xbe, 0x61, 0x8a, 0xa3, 0x3e,
  0xc2, 0x7d, 0x69, 0x3e, 0x2a, 0x4e, 0xd9, 0xbd, 0xb2, 0xe6, 0x92, 0xbe,
  0x4b, 0xc5, 0x3d, 0xbe, 0x03, 0x2f, 0x36, 0xbe, 0x02, 0x74, 0x30, 0x3d,
  0x41, 0x06, 0xb5, 0x3c, 0x44, 0x0d, 0xe7, 0x3d, 0x6c, 0x37, 0x84, 0xbe,
  0xb7, 0xe0, 0x17, 0x3e, 0xd5, 0x9c, 0x16, 0x3e, 0x24, 0xea, 0xbb, 0xbe,
  0x29, 0x45, 0xba, 0x3e, 0x9e, 0x97, 0xa6, 0x3e, 0x30, 0xfd, 0x7b, 0x3d,
  0x5f, 0xf1, 0xbb, 0xbd, 0x68, 0x80, 0xb5, 0x3d, 0x4b, 0xb6, 0x05, 0x3e,
  0x70, 0xdc, 0x4a, 0x3e, 0xd4, 0xf8, 0x87, 0xbe, 0x10, 0xa7, 0xd0, 0xbd,
  0x44, 0x52, 0xa0, 0xbe, 0xbf, 0x4b, 0x7a, 0x3e, 0x1c, 0x63, 0x59, 0xbd,
  0x4b, 0x0f, 0xd7, 0xbd, 0x47, 0xbb, 0x98, 0x3c, 0xd2, 0xa6, 0xa1, 0x3d,
  0x24, 0xea, 0xc1, 0x3d, 0x6f, 0xb4, 0xc6, 0xbe, 0xfd, 0x4c, 0xad, 0x3d,
  0x32, 0xa6, 0x15, 0xbe, 0xc2, 0x56, 0x47, 0xbe, 0x42, 0x23, 0x51, 0x3e,
  0xb9, 0xc6, 0x12, 0x3e, 0xc2, 0xda, 0xe7, 0xbe, 0x70, 0xfd, 0xb4, 0x3d,
  0x3d, 0xe4, 0x5e, 0x3e, 0xaa, 0xce, 0x4f, 0xbe, 0x7d, 0x52, 0x41, 0xbe,
  0xed, 0x06, 0xb5, 0x3e, 0xf6, 0x46, 0x98, 0xbd, 0xec, 0x3c, 0x84, 0x3e,
  0xe7, 0x76, 0xa4, 0x3e, 0x61, 0x37, 0xff, 0xbd, 0xa2, 0x53, 0x8d, 0x3e,
  0x80, 0xf5, 0xb3, 0xbd, 0x4d, 0xf6, 0x1f, 0x3d, 0xb2, 0x5c, 0x91, 0x3e,
  0xfd, 0x34, 0xcd, 0x3d, 0xbd, 0x2d, 0x42, 0x3e, 0xd3, 0xce, 0x11, 0x3e,
  0x96, 0x3e, 0xe5, 0xbe, 0xd6, 0x52, 0x10, 0xbe, 0x63, 0x81, 0xc7, 0x3e,
  0x3f, 0x49, 0x51, 0xbe, 0x00, 0xa8, 0xf1, 0x3d, 0x9d, 0x1a, 0xac, 0x3d,
  0x44, 0x6d, 0x80, 0x3e, 0x39, 0xa6, 0xed, 0x3d, 0x4a, 0x9d, 0x6b, 0x3e,
  0xcd, 0x99, 0x6a, 0xbd, 0x62, 0x65, 0xb9, 0xbe, 0xd2, 0xe7, 0xb2, 0x3c,
  0x45, 0xc8, 0x1d, 0x3d, 0xc9, 0xc5, 0x9f, 0x3d, 0xde, 0x27, 0x78, 0xbd,
  0x86, 0xf0, 0x19, 0xbe, 0x12, 0x97, 0xe0, 0x3d, 0x24, 0xae, 0x92, 0x3d,
  0x95, 0xd7, 0x41, 0xbd, 0x40, 0x69, 0xb5, 0xbc, 0x25, 0x6a, 0x59, 0x3e,
  0x7b, 0xd8, 0x8d, 0x3c, 0x36, 0xcb, 0xc1, 0x3d, 0x41, 0x4f, 0x48, 0xbe,
  0x59, 0x09, 0xa6, 0xbd, 0x64, 0x1f, 0x61, 0xbe, 0x5e, 0xe3, 0xd1, 0xbe,
  0x4e, 0x6e, 0x0c, 0x3e, 0x64, 0xf8, 0xf0, 0x3e, 0xde, 0x1f, 0xb0, 0xbc,
  0xbf, 0xdc, 0x31, 0xbe, 0xe9, 0x43, 0xda, 0x3e, 0x63, 0xd6, 0x7f, 0xbe,
  0x9d, 0xe3, 0xa6, 0x3d, 0xca, 0x88, 0x11, 0xbd, 0x8d, 0x1c, 0x8c, 0x3e,
  0xf3, 0xc5, 0xe7, 0x3d, 0x97, 0x3d, 0xa3, 0xbe, 0x21, 0xda, 0xaf, 0xbe,
  0x0a, 0x31, 0x34, 0x3e, 0x73, 0x24, 0x02, 0xbe, 0x51, 0x92, 0x58, 0xbe,
  0x6c, 0x63, 0x7f, 0xbe, 0x56, 0xf5, 0x9a, 0xbe, 0x61, 0x4a, 0x2e, 0xbe,
  0x6e, 0xb5, 0x07, 0xbf, 0x21, 0x8f, 0x5b, 0xbd, 0x9c, 0x65, 0xfe, 0x3d,
  0xd3, 0x98, 0xad, 0x3d, 0xdf, 0x80, 0x71, 0xbe, 0x52, 0x58, 0x2a, 0xbe,
  0xbd, 0x87, 0x58, 0x3e, 0xa0, 0x1d, 0x26, 0x3e, 0xf0, 0x9e, 0x9d, 0xbd,
  0x04, 0xc3, 0x8d, 0xbe, 0x31, 0xff, 0x0b, 0xbe, 0xa1, 0x9b, 0xf7, 0x3e,
  0x6b, 0xb8, 0xb5, 0xbd, 0x49, 0xf4, 0xdc, 0xbe, 0xba, 0x47, 0x1b, 0xbd,
  0x9d, 0xc8, 0x02, 0xbe, 0x9c, 0x34, 0x1e, 0x3e, 0xc7, 0xb6, 0x15, 0x3e,
  0x92, 0xb5, 0xf1, 0xbe, 0x51, 0x3b, 0x47, 0xbe, 0xfd, 0xfd, 0x81, 0x3e,
  0xbf, 0x65, 0x8a, 0x3e, 0x9e, 0xdd, 0x36, 0xbe, 0xa2, 0x9d, 0xb3, 0xbe,
  0x02, 0x76, 0x50, 0xbe, 0xb6, 0x32, 0x3e, 0xbe, 0xc9, 0xee, 0x91, 0x3e,
  0x9a, 0xc2, 0x67, 0xbd, 0x9f, 0xca, 0xbe, 0x3d, 0xad, 0x02, 0x64, 0x3e,
  0x0b, 0x5a, 0x90, 0x3e, 0x24, 0x0c, 0x8e, 0xbe, 0xf1, 0x8a, 0xe8, 0x3d,
  0x0b, 0xda, 0xa9, 0xbe, 0xc9, 0xd6, 0xbc, 0x3e, 0xc5, 0xe7, 0x20, 0xbd,
  0xe8, 0x8a, 0x41, 0x3d, 0xe5, 0xb5, 0x23, 0x3d, 0xf3, 0x3f, 0x98, 0x3d,
  0x82, 0x9a, 0x00, 0xb8, 0x64, 0x2c, 0x84, 0x3e, 0x82, 0x83, 0x0a, 0x3e,
  0xc6, 0xde, 0x9c, 0x3e, 0x11, 0x4b, 0x1a, 0x3e, 0xb2, 0x42, 0xe4, 0x3c,
  0x4e, 0xbb, 0x3c, 0xbc, 0x0d, 0x58, 0x80, 0x3d, 0xc9, 0x00, 0x76, 0x3d,
  0xc9, 0x37, 0x47, 0x3e, 0x54, 0x6f, 0xc5, 0xbe, 0xe4, 0x16, 0xbe, 0xbe,
  0xd0, 0xbe, 0x68, 0xbe, 0xe3, 0x4d, 0x38, 0xbe, 0x04, 0xfa, 0x1a, 0x3d,
  0x91, 0x80, 0x2c, 0xbd, 0x7c, 0xc7, 0x8a, 0xbd, 0xa5, 0xa3, 0x91, 0x3d,
  0x84, 0x9d, 0xf3, 0xbc, 0xce, 0xad, 0xf9, 0x3d, 0x65, 0xda, 0x5a, 0x3e,
  0x25, 0xb1, 0xa9, 0xbe, 0x61, 0x93, 0xb6, 0xbe, 0x3b, 0x80, 0x1e, 0x3e,
  0xe3, 0x73, 0xb7, 0x3c, 0xd1, 0x48, 0x5b, 0xbe, 0x43, 0xb8, 0x1a, 0x3e,
  0x78, 0xf2, 0x0e, 0xbe, 0xf7, 0x8e, 0x14, 0xbd, 0xda, 0xe1, 0x62, 0xbe,
  0x3e, 0x27, 0xa3, 0xbe, 0x85, 0x37, 0x42, 0xbe, 0x7a, 0x8a, 0xc9, 0xbe,
  0xae, 0xa2, 0xff, 0xff, 0x04, 0x00, 0x00, 0x00, 0x40, 0x06, 0x00, 0x00,
  0xac, 0x90, 0xf7, 0x3d, 0x6b, 0x05, 0x3c, 0xbe, 0xa1, 0xa2, 0x07, 0xbf,
  0x35, 0x58, 0xb6, 0x3e, 0xe7, 0x67, 0x23, 0x3b, 0x40, 0x1f, 0x96, 0x3e,
  0xc1, 0x51, 0x07, 0x3f, 0xf8, 0x61, 0x1d, 0xbd, 0xe6, 0x39, 0xfc, 0x3d,
  0x0b, 0xf1, 0x6b, 0x3e, 0x48, 0x7a, 0x85, 0x3d, 0x9c, 0x50, 0x6b, 0x3d,
  0x77, 0x27, 0x56, 0x3e, 0x0e, 0xf7, 0x18, 0xbf, 0x96, 0x79, 0xab, 0xbe,
  0x18, 0x04, 0x1d, 0x3e, 0x58, 0x98, 0xd5, 0x3d, 0xe5, 0x81, 0x44, 0x3e,
  0x00, 0xd2, 0x19, 0x3e, 0x12, 0x6a, 0x62, 0x3d, 0xf3, 0xed, 0x31, 0xbf,
  0xa1, 0xb7, 0x88, 0x3b, 0x8d, 0x5d, 0x40, 0xbe, 0x35, 0x91, 0x60, 0xbe,
  0x16, 0xa5, 0xcd, 0x3e, 0xec, 0x85, 0x13, 0x3d, 0x58, 0x3c, 0xe4, 0xbc,
  0xca, 0xe6, 0x98, 0xbc, 0xbe, 0x40, 0x83, 0xbe, 0xe3, 0xed, 0xee, 0xbe,
  0xd6, 0xd0, 0x10, 0x3f, 0x5f, 0x88, 0x29, 0xbe, 0x21, 0xbe, 0x96, 0x3e,
  0x6e, 0x80, 0x8a, 0x3d, 0x8b, 0x54, 0x38, 0xbe, 0xdf, 0xc8, 0xa9, 0xbe,
  0x8f, 0x2d, 0xaa, 0x3e, 0xf4, 0xdd, 0x99, 0xbd, 0x0e, 0x40, 0xf5, 0x3c,
  0x8b, 0x31, 0x76, 0x3d, 0xfa, 0x41, 0xef, 0xbe, 0x23, 0x12, 0x2c, 0x3d,
  0x24, 0x95, 0x0b, 0x3e, 0x3f, 0xd0, 0xbe, 0x3e, 0x03, 0x9f, 0x45, 0xbe,
  0xb1, 0x2b, 0xf8, 0x3e, 0x1d, 0x95, 0x53, 0x3d, 0x12, 0x70, 0x97, 0xbd,
  0xcd, 0xea, 0x9a, 0x3e, 0x04, 0x48, 0xb5, 0xbe, 0xa2, 0xf6, 0xaa, 0xbe,
  0x05, 0x69, 0x92, 0x3e, 0x07, 0x35, 0xc6, 0x3d, 0xa7, 0x49, 0x6f, 0x3d,
  0x68, 0xfd, 0x84, 0xbd, 0xb4, 0x24, 0xcf, 0x3c, 0xc9, 0xe6, 0x0a, 0x3e,
  0x1d, 0xd9, 0xbb, 0xbd, 0x46, 0x4c, 0x0f, 0x3e, 0x94, 0x93, 0x5d, 0x3d,
  0xb2, 0x51, 0x2c, 0xbe, 0xe7, 0x83, 0x70, 0x3e, 0x71, 0x23, 0xe7, 0xbd,
  0xa5, 0xe7, 0x04, 0xbd, 0xa9, 0x22, 0x32, 0xbe, 0xeb, 0x40, 0x0c, 0xbe,
  0xdb, 0x3d, 0x00, 0xbf, 0x65, 0x96, 0x25, 0x3e, 0x67, 0xbf, 0x1a, 0x3f,
  0x30, 0x4d, 0x8c, 0x3e, 0xbd, 0x4d, 0xb0, 0x3e, 0xa2, 0x01, 0x53, 0x3e,
  0x1c, 0xf0, 0xf0, 0x3b, 0x53, 0xa9, 0x05, 0x3e, 0x31, 0x7c, 0x11, 0x3e,
  0x93, 0x65, 0xa5, 0x3e, 0xe5, 0x5c, 0xc4, 0x3d, 0x83, 0x45, 0xb2, 0x3e,
  0x8b, 0x08, 0xa4, 0x3e, 0x9a, 0x89, 0xbf, 0xbe, 0xa8, 0xc6, 0xbe, 0xbe,
  0x31, 0x8b, 0xce, 0xbd, 0x3b, 0xbe, 0xcf, 0xbd, 0x98, 0xb4, 0x5c, 0xbe,
  0xa5, 0xcb, 0x52, 0xbe, 0x07, 0x50, 0x3a, 0xbe, 0x18, 0x7c, 0x9d, 0x3e,
  0x06, 0xb8, 0xb2, 0x3e, 0x20, 0x1c, 0x33, 0x3e, 0xc4, 0x56, 0x9a, 0x3d,
  0xaf, 0x08, 0x1c, 0xbe, 0xf9, 0x6c, 0x33, 0xbe, 0xca, 0x78, 0x5c, 0xbe,
  0x71, 0x1a, 0x35, 0x3e, 0xea, 0xc8, 0xe8, 0xbe, 0x3f, 0x2f, 0xc0, 0x3e,
  0x19, 0x39, 0x5d, 0xbe, 0xa5, 0xff, 0xec, 0x3d, 0x8b, 0x94, 0x0c, 0xbd,
  0xa1, 0x15, 0xd3, 0x3e, 0x37, 0x61, 0x09, 0xbe, 0x32, 0xf0, 0x2f, 0xbe,
  0x8e, 0xd6, 0x1e, 0xbd, 0x11, 0xdf, 0x46, 0xbd, 0x99, 0xe4, 0x91, 0x3d,
  0x10, 0x4f, 0xa4, 0xbd, 0x4e, 0x69, 0xf5, 0x3c, 0xb4, 0x7e, 0x5e, 0xbe,
  0xa0, 0xdd, 0xef, 0xbe, 0x01, 0xe5, 0xe5, 0x3d, 0x93, 0xf0, 0x4c, 0xbe,
  0xa9, 0x23, 0x2c, 0x3d, 0xb9, 0xcc, 0xfd, 0x39, 0x62, 0x8a, 0x56, 0xbe,
  0x85, 0xcb, 0x83, 0x3e, 0xe9, 0x72, 0xf1, 0x3e, 0x31, 0x0c, 0x6d, 0x3e,
  0xa9, 0x99, 0x3a, 0xbe, 0x77, 0xeb, 0x94, 0x3e, 0x0b, 0x59, 0x10, 0xbf,
  0x0a, 0x73, 0x3b, 0xbe, 0x51, 0x89, 0x53, 0xbe, 0x2f, 0xba, 0x16, 0xbe,
  0x48, 0x7c, 0xfa, 0x3c, 0x96, 0xfb, 0xbb, 0x3d, 0x5b, 0x98, 0x0b, 0x3e,
  0xd7, 0x8a, 0x28, 0xbc, 0x72, 0x2e, 0x93, 0x3e, 0x5c, 0x7c, 0x8f, 0xbd,
  0xc1, 0x49, 0x47, 0x3f, 0x58, 0x0f, 0xd5, 0x3d, 0x7e, 0x6a, 0x2f, 0x3e,
  0x1e, 0x19, 0x22, 0x3d, 0xf1, 0x56, 0x96, 0x3e, 0x8b, 0x8c, 0xe2, 0x3e,
  0x67, 0xd3, 0x04, 0x3e, 0x2c, 0xb8, 0x33, 0xbe, 0x2f, 0xee, 0xd2, 0xbe,
  0x50, 0xac, 0xf4, 0xbe, 0x10, 0xa0, 0x5f, 0x3e, 0x11, 0x61, 0x22, 0x3e,
  0x68, 0x4f, 0xcf, 0xbd, 0xc8, 0xe9, 0x29, 0x3e, 0x6f, 0x69, 0x5f, 0x3e,
  0x3c, 0x16, 0x03, 0x3f, 0x43, 0x16, 0xb4, 0x3e, 0xd4, 0xb4, 0xec, 0xbd,
  0xa9, 0x75, 0x21, 0x3f, 0x83, 0xe1, 0xaf, 0xbc, 0x2a, 0x00, 0xbe, 0x3d,
  0x39, 0x9b, 0xfa, 0x3d, 0xb5, 0x67, 0x3a, 0xbd, 0xc4, 0x78, 0xdf, 0xbe,
  0xcd, 0xe9, 0x14, 0xbe, 0x2e, 0x32, 0x0a, 0xbe, 0x3e, 0xa5, 0x7b, 0x3e,
  0xf4, 0xdc, 0xda, 0xbe, 0xe0, 0xbb, 0x28, 0x3e, 0xd5, 0x9f, 0x0f, 0xbe,
  0x7b, 0xf2, 0x0d, 0xbe, 0x19, 0x4e, 0xca, 0x3e, 0x4b, 0xe2, 0x92, 0xbe,
  0xd7, 0x64, 0x99, 0xbe, 0x66, 0xaa, 0x2b, 0x3d, 0xd5, 0x91, 0x9a, 0x3e,
  0x7b, 0x44, 0xab, 0xbe, 0x7f, 0x39, 0x83, 0x3b, 0xeb, 0xb3, 0x03, 0x3f,
  0x87, 0xcd, 0x0f, 0x3d, 0xea, 0x60, 0x2d, 0xbe, 0xa8, 0x31, 0xa2, 0xbe,
  0x9a, 0xe5, 0xff, 0x3e, 0xa7, 0x1a, 0x10, 0x3e, 0x1b, 0xd1, 0x41, 0xbc,
  0x24, 0x88, 0x9a, 0x3d, 0xfb, 0x68, 0x53, 0x3e, 0xb2, 0xcd, 0x19, 0x3e,
  0x98, 0x29, 0x3c, 0x3e, 0xde, 0x22, 0x47, 0x3e, 0x67, 0x82, 0xe8, 0x3c,
  0x05, 0xe6, 0x44, 0xbd, 0xef, 0x41, 0x4b, 0x3e, 0xce, 0xb9, 0x8b, 0x3e,
  0xb5, 0xb8, 0xcb, 0xbc, 0xb9, 0xac, 0x05, 0x3f, 0xac, 0xf2, 0x54, 0xbe,
  0x57, 0x1b, 0xbe, 0x3e, 0x28, 0x56, 0x2f, 0x3c, 0x55, 0xff, 0x0f, 0x3e,
  0x02, 0x5d, 0x3c, 0x3e, 0x5b, 0x88, 0xd9, 0xbe, 0xbc, 0xbb, 0xb9, 0x3e,
  0x43, 0x75, 0x02, 0xbe, 0x8e, 0x55, 0x92, 0xbe, 0x0f, 0x38, 0x4e, 0xbe,
  0xef, 0x46, 0xd3, 0x3d, 0x27, 0x4f, 0x79, 0xbe, 0x12, 0x7c, 0xc4, 0xbd,
  0x7b, 0xc3, 0x06, 0xbf, 0x39, 0x22, 0x04, 0xbf, 0x41, 0x54, 0xd0, 0x3e,
  0xcb, 0x2c, 0xd0, 0x3e, 0x5f, 0xdf, 0x8a, 0x3e, 0x2f, 0x11, 0x05, 0xbf,
  0x86, 0x3d, 0x66, 0x3d, 0x13, 0xb0, 0xa0, 0x3e, 0xfe, 0xef, 0xb1, 0xba,
  0xb4, 0x48, 0x47, 0x3d, 0xc8, 0x57, 0x84, 0xbd, 0xc3, 0x32, 0xa7, 0xbd,
  0x4c, 0xb7, 0x41, 0xbe, 0x22, 0x22, 0x15, 0xbe, 0x77, 0x98, 0xea, 0x3e,
  0x12, 0xe5, 0x35, 0x3e, 0x6b, 0xdb, 0xb2, 0x3d, 0x2f, 0x6e, 0xfa, 0x3e,
  0x8f, 0x67, 0x4c, 0x3c, 0xbd, 0x28, 0xf1, 0x3d, 0xb3, 0xa6, 0x66, 0xbd,
  0x4c, 0x8e, 0x19, 0x3e, 0x05, 0xd1, 0x16, 0x3d, 0xad, 0xa1, 0xdf, 0xbe,
  0x5b, 0x19, 0x44, 0xbe, 0x0e, 0xc3, 0x06, 0xbf, 0x04, 0x0d, 0x56, 0xbe,
  0x33, 0x26, 0x72, 0x3d, 0x0d, 0x92, 0xa4, 0xbe, 0x24, 0x41, 0x7e, 0x3e,
  0x7f, 0x95, 0x11, 0x3d, 0x33, 0x75, 0x99, 0xbd, 0xd2, 0x83, 0xa0, 0x3d,
  0x42, 0xf3, 0x9d, 0x3e, 0x43, 0x7c, 0xb0, 0xbe, 0xe4, 0xc6, 0x1b, 0xbf,
  0x05, 0x27, 0xbc, 0xbb, 0xad, 0x78, 0xee, 0x3c, 0xf1, 0x46, 0x2d, 0xbd,
  0x2a, 0x09, 0xb9, 0x3c, 0xd7, 0xcd, 0x93, 0xbe, 0x50, 0x56, 0xdb, 0x3d,
  0x32, 0xa6, 0xd8, 0x3d, 0x2e, 0x97, 0x14, 0xbe, 0x10, 0x6d, 0x68, 0xbe,
  0xfa, 0x04, 0xde, 0xbe, 0x52, 0x8d, 0xea, 0xbd, 0x4d, 0xa8, 0x08, 0x3f,
  0x16, 0x0e, 0xce, 0x3e, 0x49, 0x33, 0xfb, 0x3d, 0xfe, 0xff, 0xd8, 0xbd,
  0x92, 0xa4, 0xb4, 0x3e, 0x2d, 0x3b, 0x9f, 0xbe, 0x66, 0x6a, 0x5f, 0xbe,
  0x72, 0x0d, 0x0e, 0x3e, 0x24, 0x05, 0x3b, 0x3e, 0x5f, 0xc0, 0x8e, 0x3e,
  0x31, 0xba, 0xd3, 0xbe, 0x02, 0xf5, 0x1c, 0x3e, 0xeb, 0x05, 0xf4, 0xbd,
  0x28, 0x5b, 0xc1, 0x3d, 0xd6, 0x77, 0xea, 0xbe, 0x29, 0xfa, 0x61, 0xbe,
  0xa9, 0x97, 0xa0, 0x3d, 0x1e, 0xc0, 0x8c, 0x3e, 0x98, 0xf6, 0x52, 0xbe,
  0xd6, 0x57, 0x76, 0x3e, 0x6f, 0x80, 0x40, 0x3e, 0x6c, 0x6b, 0x70, 0xbe,
  0x9f, 0x23, 0xbd, 0xbe, 0x38, 0xf4, 0xa2, 0xbe, 0xfb, 0xa3, 0xdb, 0x3d,
  0x41, 0x4f, 0x42, 0xbe, 0xf8, 0xb5, 0xba, 0x3e, 0x41, 0xd6, 0x07, 0xbe,
  0xe1, 0x0b, 0x93, 0x3d, 0x62, 0xdc, 0x86, 0xbe, 0xb6, 0x4b, 0x9e, 0xbe,
  0xfd, 0xe2, 0x42, 0xbe, 0x4a, 0x20, 0xb0, 0x3e, 0x83, 0xdc, 0x85, 0x3e,
  0x34, 0xac, 0xc6, 0x3e, 0x50, 0x2d, 0x2f, 0xbd, 0x2b, 0x24, 0x21, 0x3f,
  0xf2, 0x81, 0x60, 0x3e, 0x71, 0x8f, 0x80, 0xbd, 0xdd, 0x60, 0xb3, 0xbe,
  0xfe, 0x85, 0xcd, 0xbd, 0x39, 0xc7, 0x23, 0x3f, 0x43, 0xd7, 0xfc, 0x3e,
  0xac, 0xb3, 0xc6, 0xbe, 0x33, 0x14, 0x0b, 0x3e, 0xba, 0x28, 0x06, 0x3e,
  0xe4, 0x40, 0x22, 0x3e, 0x9a, 0xbc, 0x34, 0x3e, 0x5e, 0x60, 0x37, 0xbd,
  0x7f, 0xcb, 0x79, 0xbe, 0x58, 0xd4, 0x9f, 0xbe, 0x6d, 0x82, 0x2f, 0x3e,
  0x30, 0xfc, 0x38, 0xbd, 0x62, 0xc1, 0x18, 0x3e, 0xe2, 0x5b, 0x5d, 0x3d,
  0x2c, 0x87, 0x86, 0x3d, 0x21, 0xda, 0x00, 0xbf, 0xda, 0xdd, 0xcd, 0x3c,
  0xdd, 0x55, 0x23, 0xbe, 0xb1, 0x8e, 0x4f, 0xbd, 0xb0, 0x40, 0xa2, 0xbb,
  0xde, 0x87, 0x01, 0x3f, 0xa1, 0x8b, 0x9b, 0x3c, 0x13, 0xd3, 0x45, 0x3c,
  0x0f, 0xf3, 0x44, 0xbe, 0x1c, 0x44, 0xd7, 0x3e, 0x52, 0x02, 0xd0, 0x3e,
  0x20, 0xa5, 0x95, 0xbe, 0x37, 0xa0, 0xbd, 0x3e, 0x85, 0x19, 0xea, 0xbe,
  0xf6, 0x98, 0x18, 0x3f, 0x84, 0x7e, 0xe2, 0x3c, 0x7f, 0x55, 0xb3, 0x3e,
  0x70, 0x72, 0x56, 0xbe, 0x4a, 0x78, 0xd2, 0xbd, 0xd1, 0x3c, 0x1f, 0x3d,
  0x1c, 0x09, 0x07, 0xbe, 0xe3, 0x5a, 0xf1, 0x3d, 0xc8, 0x72, 0x43, 0xbd,
  0x29, 0xd4, 0x87, 0xbc, 0x63, 0x78, 0xe2, 0x3c, 0xde, 0x82, 0xe7, 0x3d,
  0xe8, 0xc3, 0x05, 0xbd, 0xcc, 0xf4, 0x89, 0xbc, 0xe7, 0x65, 0x4f, 0x3d,
  0x2c, 0x97, 0xc4, 0x3e, 0xe1, 0xfa, 0xd9, 0xbd, 0x2a, 0x45, 0xab, 0x3e,
  0x24, 0x26, 0x41, 0xbe, 0xf1, 0xc8, 0x51, 0x3f, 0x0e, 0xd0, 0xc0, 0xbe,
  0xcf, 0xb0, 0x00, 0xbf, 0x3d, 0x41, 0x11, 0x3e, 0x80, 0x98, 0xc4, 0x3d,
  0xf4, 0x00, 0x7c, 0xbe, 0x12, 0x3f, 0x21, 0x3e, 0x92, 0x78, 0x04, 0xbf,
  0x33, 0x93, 0xa6, 0x3e, 0xc4, 0xf4, 0xfc, 0xbd, 0x3a, 0x86, 0x56, 0x3e,
  0xa2, 0x2a, 0x81, 0xbe, 0xa2, 0xa1, 0xcf, 0x3e, 0x84, 0x9b, 0x34, 0x3e,
  0x14, 0x26, 0xcf, 0x3e, 0xaf, 0xfe, 0xba, 0x3d, 0xff, 0x83, 0xad, 0x3d,
  0xc6, 0x22, 0x0a, 0x3d, 0xe6, 0x97, 0xb5, 0xbe, 0x71, 0x39, 0x0e, 0xbe,
  0x63, 0x74, 0x05, 0x3e, 0x75, 0x0e, 0x14, 0x3d, 0xd9, 0x71, 0xd0, 0x3e,
  0x8b, 0xde, 0x0c, 0x3e, 0x17, 0x84, 0xd5, 0x3e, 0x7c, 0xad, 0xa8, 0x3e,
  0x50, 0xbb, 0x74, 0x3e, 0x40, 0xf0, 0x03, 0xbe, 0xf5, 0x0f, 0x84, 0x3e,
  0x8f, 0x7b, 0x00, 0xbd, 0xa4, 0xda, 0x9c, 0xbe, 0x55, 0x74, 0x14, 0x3e,
  0xae, 0x79, 0xaa, 0xbe, 0x20, 0x35, 0x3d, 0xbe, 0x3e, 0x21, 0x2d, 0x3e,
  0x07, 0x6f, 0xb4, 0x3d, 0x47, 0x77, 0x02, 0x3f, 0x24, 0x61, 0x82, 0x3c,
  0xa1, 0x31, 0xeb, 0x3e, 0x58, 0x16, 0x4f, 0xbe, 0x85, 0xd3, 0x9e, 0xbe,
  0xf4, 0xb6, 0x03, 0xbe, 0xd6, 0x61, 0x86, 0xbe, 0xd3, 0x8b, 0xfb, 0xbe,
  0xf1, 0x11, 0xc2, 0x3e, 0x3f, 0x06, 0x80, 0xbe, 0xcb, 0x99, 0x23, 0xbe,
  0xc0, 0x93, 0x9f, 0xbe, 0x68, 0x6f, 0x00, 0x3f, 0x53, 0x4d, 0x20, 0x3f,
  0xbe, 0xfe, 0x50, 0xbb, 0xa8, 0x8b, 0xe0, 0xbd, 0x1b, 0xb6, 0x14, 0xbf,
  0xa0, 0x2e, 0x7e, 0x3e, 0xf2, 0x2c, 0x0b, 0xbe, 0x69, 0xe2, 0x55, 0xbd,
  0x91, 0xd8, 0x89, 0xbd, 0xae, 0xf2, 0xa6, 0xbe, 0xa9, 0xe9, 0x0b, 0x3e,
  0xb9, 0x56, 0x4f, 0xbe, 0xdc, 0xc9, 0xcc, 0xbe, 0x2d, 0x08, 0x4d, 0xbd,
  0xee, 0x42, 0x9e, 0x3e, 0x2c, 0x42, 0x06, 0x3f, 0x1f, 0xc8, 0x92, 0xbd,
  0x4d, 0xa3, 0x9f, 0x3e, 0xfa, 0xa8, 0xff, 0xff, 0x04, 0x00, 0x00, 0x00,
  0x50, 0x00, 0x00, 0x00, 0x58, 0x79, 0x2d, 0x3e, 0x1d, 0x88, 0x3c, 0xbe,
  0xcf, 0x17, 0x9e, 0xbd, 0x87, 0x34, 0x69, 0x3d, 0x76, 0xc6, 0xb4, 0x3d,
  0xac, 0x31, 0x29, 0xbe, 0x5e, 0xd6, 0x17, 0x3c, 0xf2, 0x5e, 0x36, 0x3d,
  0x79, 0xf5, 0xeb, 0x3d, 0xe9, 0x8f, 0x76, 0x3d, 0xac, 0xea, 0xd3, 0xbd,
  0xee, 0x14, 0xc1, 0x3d, 0x59, 0x90, 0x42, 0xbe, 0x2f, 0xf2, 0xd4, 0xbc,
  0xe7, 0x19, 0x11, 0xbd, 0xbf, 0x73, 0x59, 0x3e, 0x55, 0x45, 0x18, 0xbe,
  0x98, 0x5a, 0xdb, 0x3d, 0xef, 0xa7, 0x89, 0xbe, 0xa6, 0x90, 0x6c, 0x3e,
  0x56, 0xa9, 0xff, 0xff, 0x04, 0x00, 0x00, 0x00, 0x04, 0x00, 0x00, 0x00,
  0x01, 0x00, 0x00, 0x00, 0x66, 0xa9, 0xff, 0xff, 0x04, 0x00, 0x00, 0x00,
  0x08, 0x00, 0x00, 0x00, 0xff, 0xff, 0xff, 0xff, 0x14, 0x00, 0x00, 0x00,
  0x94, 0x8b, 0xff, 0xff, 0x98, 0x8b, 0xff, 0xff, 0x9c, 0x8b, 0xff, 0xff,
  0xa0, 0x8b, 0xff, 0xff, 0xa4, 0x8b, 0xff, 0xff, 0xa8, 0x8b, 0xff, 0xff,
  0xac, 0x8b, 0xff, 0xff, 0xb0, 0x8b, 0xff, 0xff, 0xb4, 0x8b, 0xff, 0xff,
  0xb8, 0x8b, 0xff, 0xff, 0xbc, 0x8b, 0xff, 0xff, 0xc0, 0x8b, 0xff, 0xff,
  0xc4, 0x8b, 0xff, 0xff, 0xc8, 0x8b, 0xff, 0xff, 0xcc, 0x8b, 0xff, 0xff,
  0xd0, 0x8b, 0xff, 0xff, 0xd4, 0x8b, 0xff, 0xff, 0xd8, 0x8b, 0xff, 0xff,
  0xdc, 0x8b, 0xff, 0xff, 0xe0, 0x8b, 0xff, 0xff, 0xe4, 0x8b, 0xff, 0xff,
  0xce, 0xa9, 0xff, 0xff, 0x04, 0x00, 0x00, 0x00, 0x40, 0x06, 0x00, 0x00,
  0x95, 0x16, 0x82, 0xbe, 0x6e, 0xeb, 0x9d, 0xbe, 0x5d, 0xcf, 0xe8, 0xbe,
  0x02, 0xd1, 0x87, 0x3d, 0x8f, 0x99, 0x15, 0xbf, 0xf5, 0x8d, 0x8d, 0x3c,
  0x3d, 0xca, 0x95, 0xbb, 0x8a, 0x01, 0xc1, 0x3d, 0x30, 0x70, 0xfc, 0x3d,
  0x5c, 0x37, 0x9f, 0xbe, 0x2e, 0x08, 0x8e, 0xbe, 0x1f, 0x71, 0x53, 0x3c,
  0xac, 0xd9, 0x93, 0xbc, 0x20, 0x13, 0xe5, 0xbd, 0xba, 0x33, 0x37, 0xbd,
  0xb0, 0xbe, 0xc1, 0x3e, 0xdb, 0x0c, 0xfe, 0x3d, 0x11, 0xd7, 0xd5, 0xbc,
  0xdc, 0xf0, 0x80, 0xbe, 0x58, 0x0e, 0xe7, 0x3d, 0x06, 0x3b, 0x94, 0xbe,
  0xa8, 0xf9, 0xb3, 0xbe, 0x84, 0x95, 0xa6, 0xbe, 0x82, 0x26, 0x90, 0xbe,
  0x14, 0xe4, 0xa0, 0x3e, 0x93, 0x30, 0xa6, 0x3d, 0xa7, 0x17, 0xfa, 0xbe,
  0xcb, 0x20, 0xeb, 0xbe, 0x00, 0x64, 0x84, 0xbe, 0x02, 0x00, 0x93, 0x3e,
  0x97, 0xe7, 0x84, 0x3d, 0x72, 0x38, 0xb3, 0xbe, 0x31, 0x61, 0xc7, 0x3e,
  0x66, 0x6c, 0xe7, 0xbd, 0xc4, 0xbb, 0x68, 0xbc, 0x3c, 0x15, 0xe7, 0xbc,
  0xc1, 0x7e, 0xbb, 0xbc, 0x28, 0x46, 0xcf, 0x3c, 0x41, 0xdf, 0x0c, 0x3e,
  0xce, 0x1b, 0xfb, 0xbe, 0xf4, 0x3c, 0xa4, 0xbe, 0xe8, 0xa8, 0x2a, 0xbe,
  0xa4, 0xe2, 0xb4, 0xbd, 0x95, 0xdd, 0x55, 0x3d, 0x3f, 0x7a, 0x8f, 0xbe,
  0x1c, 0x4d, 0xd6, 0xbe, 0x0f, 0x49, 0xc2, 0xbe, 0xf9, 0x7f, 0x2c, 0xbe,
  0xef, 0x56, 0x73, 0xbe, 0xac, 0x97, 0x58, 0xbe, 0x1f, 0xe7, 0x9a, 0xbe,
  0xb2, 0x63, 0xad, 0xbe, 0x2e, 0x5a, 0x88, 0xbe, 0x0d, 0xa2, 0x9d, 0x3d,
  0xd3, 0xe7, 0xf3, 0x3e, 0x98, 0xec, 0x95, 0x3c, 0x67, 0xad, 0x2b, 0xbd,
  0xf8, 0xbf, 0x7d, 0xbd, 0x51, 0xd7, 0xb2, 0xbe, 0x61, 0x1f, 0xaa, 0x3e,
  0x36, 0xd0, 0x83, 0x3e, 0x29, 0x97, 0x1d, 0xbe, 0xe8, 0x51, 0x0e, 0xbe,
  0xb0, 0x55, 0x27, 0x3e, 0x30, 0x31, 0x37, 0x3d, 0x53, 0xdb, 0x4a, 0x3e,
  0x2a, 0xf3, 0x96, 0xbe, 0x87, 0xb7, 0xb8, 0xbe, 0xd1, 0xcf, 0x9a, 0xbb,
  0x90, 0x61, 0x89, 0xbd, 0xa3, 0x5a, 0xc1, 0xbe, 0x40, 0xec, 0x29, 0x3d,
  0x2e, 0x9e, 0x92, 0x3e, 0xc1, 0x9c, 0x45, 0xbe, 0xfa, 0xbc, 0xe4, 0xbd,
  0xcf, 0x3e, 0x46, 0x3e, 0xb0, 0x69, 0x0d, 0xbe, 0xa0, 0xa1, 0xba, 0xbd,
  0x8f, 0xfd, 0x34, 0x3d, 0x57, 0xe3, 0x01, 0xbf, 0x7b, 0x50, 0x9a, 0x3e,
  0xf5, 0xb8, 0xde, 0xbd, 0xe5, 0xe0, 0xa6, 0xbe, 0x30, 0xcb, 0x66, 0x3e,
  0x99, 0x79, 0xdf, 0xbe, 0xe8, 0xee, 0x8d, 0xbe, 0xd4, 0xca, 0xb4, 0xbe,
  0xc9, 0xc1, 0x1c, 0x3d, 0xed, 0x5d, 0x2e, 0xbd, 0xd5, 0xaa, 0x07, 0xbe,
  0x77, 0x54, 0xc8, 0xbd, 0xac, 0xfc, 0xb2, 0xbe, 0x22, 0x72, 0x1a, 0x3e,
  0x10, 0x6a, 0xe0, 0x3d, 0xa2, 0x35, 0xc2, 0x3e, 0xb7, 0x47, 0x66, 0x3e,
  0x71, 0x49, 0xb7, 0x3e, 0x80, 0x68, 0x76, 0x3e, 0xb3, 0xd7, 0x15, 0x3d,
  0x8c, 0x45, 0xb3, 0x3d, 0xfd, 0xb4, 0x92, 0xbe, 0x8b, 0x82, 0xaa, 0x3e,
  0x28, 0xeb, 0xca, 0x3e, 0x59, 0x93, 0xa7, 0xbe, 0x8b, 0xd2, 0x28, 0x3e,
  0x99, 0x4a, 0x8c, 0xbe, 0xc2, 0x82, 0x9c, 0x3e, 0x6b, 0xd8, 0x29, 0xbe,
  0x8a, 0x22, 0xc2, 0x3e, 0x97, 0xed, 0x96, 0xbd, 0x4a, 0x0a, 0xbc, 0x3e,
  0x08, 0x33, 0x48, 0x3e, 0x5f, 0x8e, 0x35, 0xbe, 0x20, 0x38, 0x06, 0xbe,
  0xf5, 0x16, 0xef, 0xbe, 0x43, 0xce, 0x70, 0xbd, 0xd8, 0x56, 0x6b, 0x3d,
  0xed, 0x1a, 0xbc, 0x3d, 0xf3, 0x40, 0x07, 0xbe, 0xd6, 0x3d, 0x19, 0x3e,
  0xed, 0x40, 0x6a, 0x3d, 0xd2, 0xbf, 0x07, 0xbe, 0xb7, 0x8a, 0x6a, 0xbe,
  0x35, 0x45, 0x98, 0xbe, 0x7d, 0x6e, 0xc6, 0x3e, 0x95, 0x6a, 0x27, 0x3e,
  0x17, 0x24, 0xdb, 0x3c, 0x74, 0x4f, 0x8e, 0x3e, 0xd5, 0xe6, 0x94, 0xbe,
  0x2b, 0x12, 0x98, 0xbe, 0xaf, 0xd0, 0x00, 0x3e, 0x54, 0xc5, 0x2b, 0xbd,
  0x8c, 0xcd, 0x49, 0x3e, 0x4d, 0xeb, 0xc2, 0xbd, 0xd4, 0x86, 0x6d, 0xbe,
  0x5d, 0x9c, 0xcd, 0x3b, 0xd5, 0xb2, 0x72, 0xbe, 0xee, 0xb0, 0xb1, 0x3e,
  0xc5, 0x19, 0x86, 0xbd, 0x0f, 0x5f, 0xbb, 0x3d, 0x19, 0x01, 0x4e, 0xbe,
  0x6b, 0x76, 0xd4, 0x3e, 0x22, 0xe1, 0x4c, 0xbe, 0x8a, 0xd7, 0xb2, 0x3d,
  0x50, 0x2a, 0xec, 0x3e, 0x6b, 0x09, 0xd7, 0xbe, 0xa1, 0xbc, 0x18, 0x3f,
  0x3c, 0x75, 0xeb, 0xba, 0x45, 0x83, 0x48, 0xbe, 0x51, 0xbf, 0x92, 0xbe,
  0xb2, 0x2f, 0x53, 0xbc, 0x81, 0x08, 0x51, 0xbe, 0x06, 0xcc, 0x83, 0xbe,
  0xab, 0x65, 0x64, 0x3e, 0x74, 0x86, 0xa0, 0xbe, 0xa9, 0xf5, 0x61, 0x3e,
  0x37, 0x93, 0x89, 0xbe, 0x83, 0xf4, 0xa0, 0x3e, 0x0a, 0xc9, 0x8a, 0x3e,
  0x7b, 0xf4, 0xd9, 0x3e, 0xcd, 0x37, 0xf3, 0xbd, 0x03, 0x4b, 0x06, 0xbd,
  0xd5, 0x8e, 0x78, 0xbc, 0x35, 0x04, 0xdc, 0x3e, 0xc7, 0xf5, 0x0e, 0xbf,
  0xec, 0x35, 0xbb, 0x3e, 0xed, 0xfa, 0xb1, 0x3e, 0xf9, 0x07, 0x68, 0x3e,
  0xd5, 0x68, 0xe2, 0xbe, 0x57, 0x29, 0x1d, 0x3c, 0x2f, 0x5a, 0xb7, 0xbe,
  0xb7, 0xd5, 0xbe, 0xbe, 0x3e, 0xc6, 0x84, 0xbd, 0x95, 0xda, 0xbc, 0x3c,
  0xa8, 0x2d, 0xc6, 0x3e, 0x0c, 0x29, 0x97, 0xbd, 0x1c, 0xe2, 0x5c, 0xbd,
  0xf9, 0x9d, 0xa0, 0x3d, 0xbd, 0x08, 0x14, 0xbe, 0xa3, 0x1d, 0x9a, 0xbd,
  0xd1, 0x7b, 0x28, 0x3e, 0x67, 0x41, 0xe5, 0xbe, 0xa6, 0x9b, 0x13, 0x3e,
  0xdf, 0x0d, 0x33, 0xbe, 0x0f, 0xbb, 0xba, 0xbe, 0x61, 0xce, 0xb3, 0xbe,
  0xa9, 0x26, 0x17, 0xbe, 0xd8, 0xe9, 0xd3, 0xbe, 0xe5, 0xbc, 0x03, 0xbe,
  0xce, 0x7b, 0x44, 0xbe, 0x5a, 0x64, 0x17, 0x3e, 0x00, 0x65, 0xae, 0xbd,
  0xd4, 0x2a, 0xca, 0xbd, 0xf1, 0x3a, 0xd8, 0xbe, 0x78, 0xca, 0xce, 0xbe,
  0x9a, 0x4e, 0xb2, 0x3e, 0x54, 0x78, 0x8e, 0xbe, 0x9a, 0x5a, 0x0e, 0xbb,
  0xce, 0xaa, 0x80, 0xbd, 0xfc, 0x12, 0x37, 0x3e, 0x4d, 0xe8, 0xe7, 0xbd,
  0xca, 0x7c, 0xb5, 0x3e, 0xc2, 0xec, 0xff, 0xbe, 0xd3, 0x84, 0x65, 0xbd,
  0xf7, 0xaf, 0x98, 0xbd, 0xdf, 0xf2, 0xed, 0x3e, 0x52, 0x69, 0x47, 0xbe,
  0xe9, 0xb3, 0x03, 0xbe, 0xf3, 0x21, 0x42, 0x3e, 0x15, 0xc2, 0x93, 0x3e,
  0x08, 0xd3, 0x18, 0x3e, 0xde, 0x62, 0x39, 0x3e, 0xab, 0xbc, 0xa2, 0xbe,
  0x0b, 0x92, 0xf3, 0xbc, 0x84, 0xa7, 0x83, 0xbd, 0x45, 0xd3, 0xa8, 0xbe,
  0xce, 0x2b, 0x92, 0x3e, 0x3e, 0x62, 0x95, 0xbe, 0x91, 0xe6, 0x09, 0xbe,
  0x5d, 0xb2, 0xbd, 0xbe, 0x5a, 0x55, 0x81, 0xbe, 0x2d, 0x2c, 0x39, 0xbe,
  0xe2, 0x5a, 0xad, 0x3e, 0x1e, 0x05, 0xc2, 0x3e, 0x7f, 0xd0, 0x8c, 0xbc,
  0x14, 0x57, 0x88, 0xbe, 0x88, 0x0e, 0x1f, 0xbc, 0xae, 0x07, 0x3e, 0x3d,
  0x51, 0xc5, 0x67, 0x3e, 0xac, 0x9d, 0x6e, 0xbe, 0x5a, 0xcc, 0xb3, 0xbe,
  0x85, 0x2e, 0x98, 0x3d, 0xeb, 0x6e, 0x05, 0x3e, 0xb3, 0x94, 0xf4, 0x3d,
  0x80, 0x55, 0x85, 0xbe, 0x66, 0x85, 0xed, 0xbd, 0x27, 0xb6, 0x66, 0xbe,
  0x63, 0xd8, 0xba, 0xbc, 0x75, 0x38, 0x9d, 0x3e, 0x78, 0x30, 0x23, 0x3e,
  0x28, 0x6c, 0xba, 0x3e, 0x9a, 0x86, 0x9a, 0xbe, 0xae, 0x8e, 0xdf, 0xbc,
  0xda, 0xb8, 0x37, 0xbe, 0x43, 0x08, 0x9e, 0xbe, 0x0a, 0x4a, 0x02, 0x3d,
  0x56, 0x8e, 0x20, 0x3e, 0xc4, 0x50, 0x8a, 0xbe, 0x21, 0xb2, 0xd0, 0x3d,
  0xd1, 0x2f, 0x73, 0x3e, 0xca, 0x85, 0xc8, 0x3e, 0x60, 0x8a, 0xa6, 0xbe,
  0xff, 0xdc, 0x4f, 0xbe, 0x23, 0x4b, 0x56, 0x3e, 0x06, 0x06, 0x07, 0x3e,
  0x77, 0x14, 0x3c, 0xbd, 0xf3, 0x0f, 0x38, 0x3e, 0xba, 0x65, 0xad, 0xbd,
  0xab, 0xa3, 0xbd, 0xbe, 0x39, 0x8f, 0x5a, 0x3e, 0x8f, 0x34, 0xcf, 0x3e,
  0xc3, 0xc6, 0x4b, 0xbe, 0x04, 0x06, 0x1a, 0x3e, 0x53, 0x82, 0x2a, 0x3d,
  0xc4, 0x07, 0x81, 0x3d, 0x61, 0xd5, 0x9e, 0xbe, 0xf2, 0x55, 0xa2, 0xbe,
  0xcc, 0x1e, 0x50, 0x3e, 0x65, 0x52, 0x7c, 0x3e, 0x88, 0x4a, 0x8a, 0xbe,
  0xc3, 0x3d, 0x51, 0xbe, 0x63, 0xda, 0x44, 0x3e, 0x73, 0xb7, 0x3f, 0x3e,
  0x15, 0x3c, 0x50, 0xbe, 0x34, 0xd0, 0x03, 0x3e, 0xdf, 0x81, 0x1b, 0x3e,
  0x97, 0x0d, 0x09, 0x3e, 0xca, 0x21, 0xb1, 0xbe, 0x66, 0xf1, 0x6f, 0x3e,
  0x7a, 0x2f, 0x55, 0x3e, 0xf5, 0x9e, 0x20, 0xbd, 0x83, 0x81, 0xd8, 0x3d,
  0x64, 0x16, 0xbc, 0x3e, 0xfb, 0x02, 0xf0, 0xbe, 0x73, 0xb4, 0xb0, 0x3e,
  0xf5, 0xac, 0x69, 0x3e, 0x64, 0x03, 0x61, 0x3e, 0x24, 0xdd, 0xae, 0xbe,
  0xec, 0x98, 0x13, 0xbc, 0x3b, 0xb9, 0x01, 0xbf, 0x05, 0xc4, 0x3f, 0x3c,
  0xdc, 0x46, 0x7a, 0x3e, 0x7d, 0xcd, 0x71, 0xbe, 0x1d, 0x88, 0x77, 0xbe,
  0xe3, 0xd0, 0xf4, 0x3d, 0x1e, 0xb6, 0x45, 0x3e, 0x9f, 0xee, 0x3b, 0xbe,
  0xd3, 0x7a, 0x8a, 0xbe, 0x03, 0xb2, 0x9d, 0x3e, 0xcd, 0x17, 0x0b, 0xbe,
  0x77, 0x89, 0x1e, 0xbe, 0xc8, 0xfa, 0x94, 0x3e, 0x57, 0x00, 0x88, 0x3e,
  0x8a, 0x26, 0xe1, 0x3e, 0xac, 0x43, 0x20, 0x3e, 0x2b, 0xba, 0x81, 0xbe,
  0xa2, 0xce, 0x8d, 0xbe, 0x83, 0xa6, 0xde, 0xbc, 0xb6, 0x5c, 0x82, 0x3e,
  0x34, 0x4a, 0x16, 0x3e, 0x96, 0x1e, 0x7b, 0x3e, 0x31, 0x66, 0x06, 0xbe,
  0x48, 0x5a, 0xb9, 0xbd, 0xf0, 0x1c, 0x5c, 0x3e, 0xf5, 0xf5, 0xb8, 0x3d,
  0x75, 0xc5, 0x5f, 0x3e, 0xc5, 0xca, 0xaa, 0x3e, 0xf2, 0x36, 0x90, 0x3e,
  0x62, 0x8d, 0xa3, 0x3d, 0xbc, 0x42, 0x85, 0x3e, 0x85, 0x6a, 0x70, 0xbe,
  0x17, 0x64, 0x6d, 0xbe, 0x56, 0x9b, 0xf4, 0xbc, 0xf4, 0xa5, 0xa0, 0xbd,
  0x72, 0x8c, 0xf6, 0xbd, 0x78, 0x1e, 0x37, 0x3a, 0xe5, 0x20, 0x1c, 0x3e,
  0x2c, 0xa5, 0xa7, 0xbe, 0x51, 0x84, 0x73, 0x3e, 0xcf, 0x92, 0x19, 0xbe,
  0xfe, 0x02, 0xca, 0xbd, 0x81, 0xe5, 0x81, 0x3e, 0x19, 0x72, 0x48, 0xbc,
  0xd5, 0xc3, 0xd6, 0x3d, 0x6f, 0xbb, 0x16, 0xbe, 0xd1, 0x98, 0x90, 0x3b,
  0x57, 0x91, 0x50, 0x3e, 0xa2, 0xa8, 0x44, 0x3e, 0x10, 0x47, 0x50, 0x3d,
  0xdf, 0x9c, 0x54, 0x3e, 0x83, 0x32, 0xfc, 0x3c, 0x13, 0xb2, 0x7d, 0xbe,
  0x8d, 0xb8, 0x3a, 0xbd, 0x24, 0x05, 0xac, 0xbe, 0x5c, 0x84, 0x95, 0x3e,
  0xb0, 0xa8, 0x0f, 0x3f, 0x52, 0x52, 0xde, 0x3d, 0xfb, 0x02, 0x94, 0xbe,
  0x98, 0x76, 0xaa, 0xbe, 0xef, 0x7c, 0xc3, 0x3d, 0x76, 0x55, 0x01, 0xbd,
  0xc4, 0x06, 0x33, 0x3e, 0xfe, 0x8d, 0x92, 0xbe, 0xdb, 0xf4, 0x71, 0x3d,
  0x90, 0xcb, 0xdf, 0x3e, 0xed, 0xfa, 0x72, 0xbe, 0x63, 0x07, 0x9b, 0x3e,
  0x06, 0xcf, 0x7e, 0x3e, 0xe5, 0x1f, 0xbe, 0xbd, 0x9d, 0x61, 0x0a, 0xbf,
  0x3e, 0x48, 0x15, 0x3e, 0xc0, 0xc3, 0xe3, 0x3e, 0x57, 0x86, 0x18, 0xbf,
  0x53, 0x32, 0x52, 0xbd, 0xb0, 0x4b, 0x65, 0xbd, 0x20, 0xd0, 0xe7, 0xbe,
  0x09, 0x31, 0x9c, 0xbe, 0xee, 0x92, 0x17, 0x3d, 0x76, 0xf5, 0x93, 0xbe,
  0x87, 0x30, 0xe6, 0x3e, 0xf4, 0x0b, 0xb0, 0x3d, 0x36, 0xd1, 0x03, 0xbe,
  0xbd, 0x90, 0x94, 0xbd, 0x81, 0x80, 0x2b, 0xbe, 0x5f, 0x72, 0x81, 0xbe,
  0x21, 0xb4, 0x04, 0xbe, 0xad, 0x17, 0x52, 0xbe, 0x82, 0x0c, 0xaa, 0x3e,
  0x73, 0xc9, 0xf3, 0x3e, 0xc6, 0xbf, 0xbf, 0x3e, 0xb1, 0x2f, 0x35, 0xbe,
  0x79, 0x77, 0xbd, 0x3e, 0x50, 0x33, 0x3d, 0xbe, 0xab, 0x7e, 0x46, 0xbe,
  0xf3, 0xc8, 0x57, 0x3d, 0xc5, 0xec, 0xf8, 0xbe, 0xda, 0xb5, 0x9f, 0x3d,
  0x55, 0x04, 0x19, 0x3c, 0x67, 0x04, 0xb5, 0xbc, 0x25, 0xdc, 0xe9, 0x3d,
  0xc8, 0x16, 0x5e, 0xba, 0xfd, 0x0c, 0x18, 0x3d, 0x9c, 0xc4, 0x04, 0xbe,
  0x92, 0x9f, 0x60, 0x3e, 0xc6, 0x3d, 0x8e, 0xbe, 0x36, 0xf4, 0x68, 0x3e,
  0xcf, 0x38, 0xb9, 0xbd, 0xe3, 0xe6, 0xa9, 0xbe, 0x7a, 0x39, 0x44, 0x3c,
  0xa0, 0x52, 0xb3, 0x3d, 0x1a, 0xb0, 0xff, 0xff, 0x04, 0x00, 0x00, 0x00,
  0x40, 0x06, 0x00, 0x00, 0x0d, 0x8d, 0x58, 0x3d, 0x09, 0x83, 0xb6, 0xbe,
  0xb4, 0x8d, 0xe2, 0xbd, 0xb2, 0xb2, 0x78, 0x3d, 0x63, 0xf2, 0x02, 0xbf,
  0x63, 0x29, 0x8d, 0x3d, 0xf1, 0xca, 0x65, 0x3e, 0x3c, 0x79, 0x2b, 0x3d,
  0x9b, 0xb3, 0x67, 0x3e, 0x11, 0xd3, 0x0f, 0xbf, 0x71, 0x80, 0xb1, 0x3e,
  0x69, 0xf0, 0x84, 0x3e, 0x2a, 0x45, 0x77, 0xbe, 0x32, 0xc3, 0x83, 0xbe,
  0x1b, 0x26, 0x2e, 0x3c, 0x2a, 0x3e, 0xd0, 0x3e, 0x17, 0x3a, 0x4c, 0xbe,
  0x08, 0x62, 0xc4, 0x3d, 0x47, 0x2c, 0x2a, 0x3e, 0x03, 0x67, 0xc8, 0x3d,
  0x02, 0x25, 0xd8, 0x3e, 0x01, 0xa9, 0xad, 0xbe, 0xe3, 0x15, 0xe0, 0xbd,
  0xab, 0x1d, 0xee, 0xbe, 0xa4, 0x94, 0x44, 0xbd, 0xb7, 0xf2, 0xc9, 0x3e,
  0x8d, 0xeb, 0x69, 0xbd, 0x32, 0x2f, 0x22, 0x3d, 0xfa, 0xe8, 0x07, 0xbf,
  0x8c, 0xf1, 0x61, 0x3e, 0x2b, 0xd5, 0xa6, 0x3e, 0xba, 0xff, 0xcc, 0xbd,
  0x2e, 0xd7, 0x11, 0x3f, 0x1a, 0x28, 0x0e, 0x3e, 0x9b, 0xa8, 0x74, 0xbd,
  0xd0, 0x5f, 0x9b, 0xbc, 0xf5, 0xf4, 0x14, 0xbe, 0x6e, 0x61, 0x1e, 0xbf,
  0x2c, 0xad, 0xb6, 0x3d, 0x6c, 0x9e, 0x3a, 0xbe, 0x3a, 0xa1, 0x03, 0xbe,
  0xa1, 0x44, 0xe9, 0xbd, 0x35, 0xd0, 0x31, 0x3e, 0x8e, 0xda, 0x4f, 0x3e,
  0xba, 0x5a, 0x6a, 0xbe, 0x79, 0x88, 0x32, 0x3e, 0x0f, 0x8d, 0x10, 0xbf,
  0xbb, 0xe6, 0xa0, 0x3e, 0x7d, 0x49, 0x34, 0xbd, 0xd7, 0xb0, 0x74, 0xbe,
  0x50, 0xeb, 0x8c, 0xbe, 0x34, 0x34, 0xda, 0xbe, 0x05, 0xce, 0xac, 0xbd,
  0x71, 0xad, 0xb4, 0x3d, 0xdc, 0x1e, 0xea, 0x3d, 0x8e, 0x42, 0xa2, 0xbd,
  0x9f, 0x93, 0xd3, 0xbe, 0x0c, 0xa5, 0x08, 0xbd, 0xbd, 0x7c, 0xa5, 0xbe,
  0x86, 0xdf, 0xd9, 0xbd, 0x3b, 0x17, 0x2c, 0x3e, 0xb3, 0xd6, 0x17, 0xbe,
  0xcc, 0x5a, 0x3c, 0xbe, 0xa9, 0xda, 0xee, 0x3d, 0x43, 0xd0, 0x84, 0xbe,
  0x19, 0x1f, 0x92, 0xbd, 0x5b, 0xdc, 0xd2, 0xbe, 0xe5, 0x07, 0x2e, 0xbf,
  0x04, 0xef, 0x02, 0xbe, 0x15, 0x28, 0x53, 0x3e, 0x47, 0x74, 0x92, 0xbe,
  0x77, 0x14, 0xc2, 0x3e, 0xce, 0xdf, 0x9d, 0xbd, 0x30, 0x1a, 0x24, 0xbe,
  0x09, 0x49, 0x34, 0x3e, 0x4c, 0x2c, 0xb5, 0x3e, 0xec, 0xc5, 0x2f, 0x3e,
  0x44, 0x73, 0x2f, 0xbe, 0xb6, 0xd0, 0x2c, 0xbe, 0x2e, 0x90, 0xb0, 0x3e,
  0x00, 0x1b, 0xf4, 0x3c, 0x7c, 0x93, 0x5d, 0x3e, 0xe5, 0x32, 0x3e, 0x3e,
  0xe2, 0xb5, 0x2f, 0x3d, 0x59, 0x41, 0x06, 0xbe, 0x41, 0x0a, 0x0e, 0xbe,
  0x42, 0x40, 0x7e, 0xbd, 0x5b, 0x5c, 0xce, 0xbd, 0xf3, 0xd8, 0xff, 0xbe,
  0x45, 0x12, 0xa4, 0x3d, 0xe7, 0x9e, 0x14, 0x3f, 0x0e, 0x60, 0xa2, 0xbe,
  0x69, 0x76, 0xd9, 0xbd, 0xab, 0x95, 0x10, 0x3e, 0xbf, 0xfe, 0x83, 0xbd,
  0x26, 0xf7, 0x95, 0x3d, 0x68, 0x51, 0xa5, 0xbd, 0x9e, 0x92, 0x88, 0x3e,
  0xc3, 0xdd, 0xe1, 0xbe, 0xa9, 0x45, 0xe8, 0x3e, 0xd2, 0xec, 0x99, 0xbd,
  0xa8, 0x2d, 0xdf, 0x3d, 0x43, 0x0b, 0xb0, 0xbe, 0x73, 0x33, 0xcb, 0xbe,
  0x8f, 0xe0, 0x50, 0xbd, 0x7d, 0x05, 0xf8, 0xbe, 0xf0, 0xb8, 0x62, 0xbe,
  0x6c, 0x20, 0x43, 0x3d, 0xe0, 0x4b, 0xb9, 0xbd, 0x4f, 0x86, 0xf6, 0xbe,
  0x2c, 0xb1, 0x0f, 0xbe, 0xb1, 0x29, 0xe2, 0xbe, 0xbd, 0xa5, 0xaa, 0x3e,
  0xa8, 0xd2, 0xa5, 0xbe, 0x34, 0xdb, 0xeb, 0xbe, 0xaa, 0xb9, 0x66, 0xbe,
  0xcf, 0xa8, 0x29, 0x3d, 0xf3, 0xfd, 0x8e, 0xbd, 0x16, 0x6a, 0x8c, 0x3e,
  0x3c, 0x77, 0x23, 0x3d, 0x42, 0x40, 0x87, 0x3e, 0x77, 0x24, 0x6e, 0xbd,
  0xf5, 0xe6, 0x2b, 0xbf, 0x8b, 0xdf, 0x5b, 0x3e, 0xd5, 0x02, 0x67, 0x3e,
  0x5a, 0x84, 0x87, 0x3e, 0x80, 0x6e, 0x78, 0x3c, 0xfc, 0xfe, 0x56, 0x3e,
  0x08, 0xd7, 0x37, 0xbe, 0xf6, 0x09, 0x48, 0xbd, 0x6e, 0x66, 0x98, 0x3c,
  0xb5, 0x72, 0x24, 0x3e, 0xbd, 0x6b, 0x06, 0xbe, 0x12, 0xe7, 0x3c, 0xbc,
  0x04, 0xf7, 0xd0, 0x3d, 0x33, 0x76, 0xba, 0x3d, 0xbb, 0x31, 0x7e, 0x3e,
  0xbc, 0xbd, 0x06, 0x3f, 0xca, 0xa0, 0x12, 0xbe, 0x63, 0xc7, 0x0d, 0xbe,
  0x0e, 0x79, 0x48, 0x3e, 0x49, 0x80, 0xb1, 0xbd, 0x51, 0xe1, 0x98, 0xbe,
  0x90, 0x0e, 0xdf, 0x3e, 0xe4, 0xa6, 0x97, 0xbd, 0x15, 0xda, 0x2e, 0xbf,
  0xac, 0x3b, 0x7d, 0x3e, 0x7b, 0x09, 0x0f, 0xbe, 0x19, 0x10, 0x85, 0xbe,
  0x06, 0xf8, 0xc6, 0xbd, 0x56, 0x95, 0xb4, 0x3d, 0xb1, 0x99, 0x1b, 0xbd,
  0x62, 0x6c, 0xa3, 0x3d, 0xc1, 0x94, 0x9a, 0x3e, 0x6c, 0x28, 0xe1, 0x3d,
  0xef, 0x58, 0x93, 0x3b, 0xc7, 0xd2, 0x8e, 0xbe, 0x6e, 0x8c, 0x22, 0xbd,
  0x6c, 0x72, 0x9e, 0xbe, 0xc5, 0x39, 0x14, 0xbf, 0x81, 0x13, 0xd0, 0xbe,
  0xe7, 0x40, 0x05, 0x3f, 0x33, 0x49, 0x3f, 0xbe, 0x81, 0xe8, 0xa3, 0xbe,
  0xe4, 0xfe, 0xb7, 0xbe, 0xe6, 0x27, 0x12, 0x3f, 0x1c, 0xb6, 0x70, 0xbe,
  0x9a, 0x35, 0x77, 0x3e, 0xbf, 0x88, 0xa2, 0xbe, 0x14, 0xae, 0xda, 0xbe,
  0xf0, 0x6f, 0xf4, 0xbb, 0xb9, 0x25, 0xc2, 0x3d, 0x7c, 0x0a, 0xa9, 0x3d,
  0xc9, 0x4d, 0x4d, 0x3c, 0x3f, 0xbe, 0xc7, 0x3e, 0x82, 0x66, 0xfc, 0xbd,
  0x48, 0xc3, 0xed, 0x3e, 0xa9, 0xa8, 0x11, 0xbd, 0x0a, 0xd1, 0x87, 0xbe,
  0x50, 0x8e, 0x07, 0xbe, 0x35, 0x30, 0x9f, 0x3d, 0x7e, 0x3d, 0x02, 0xbf,
  0xef, 0x34, 0x96, 0x3d, 0xb9, 0x1d, 0x48, 0xbf, 0x41, 0x78, 0xe5, 0x3d,
  0xe3, 0x5e, 0x03, 0xbe, 0x5d, 0x5b, 0x5a, 0x3e, 0x66, 0x67, 0xc2, 0x3e,
  0x8a, 0x78, 0x3a, 0x3e, 0xcf, 0xda, 0x4c, 0x3e, 0xfb, 0xde, 0x9b, 0xbc,
  0x4d, 0x3b, 0x59, 0xbe, 0x50, 0xf4, 0x93, 0xbe, 0xfd, 0x96, 0xb2, 0x3d,
  0x3b, 0x67, 0x98, 0x3d, 0x67, 0x38, 0xdf, 0x3e, 0xc3, 0x47, 0x9f, 0x3d,
  0x03, 0xdc, 0xa4, 0x3d, 0xc1, 0x90, 0xf5, 0xbe, 0x1c, 0xbb, 0x17, 0xbd,
  0x76, 0xfa, 0x7e, 0xbe, 0xc8, 0xca, 0xfd, 0x3e, 0x5f, 0x31, 0x85, 0xbe,
  0x24, 0x9d, 0xe9, 0x3d, 0xb1, 0x64, 0x74, 0x3e, 0xef, 0xb8, 0xb2, 0x3c,
  0x82, 0x42, 0x2e, 0xbe, 0xd0, 0x5c, 0x43, 0x3e, 0xdb, 0xde, 0xd7, 0xbe,
  0x49, 0x6d, 0xb1, 0x3e, 0x2f, 0x6d, 0xb5, 0x3d, 0x9b, 0x7f, 0x1c, 0x3e,
  0xde, 0xd8, 0x15, 0xbf, 0xa5, 0xb2, 0xac, 0x3d, 0xa7, 0x17, 0xdc, 0xbe,
  0x42, 0xea, 0x61, 0x3e, 0x52, 0xa3, 0xbb, 0xbe, 0xf0, 0x1a, 0x3d, 0xbe,
  0x34, 0xa2, 0xc9, 0x3d, 0xb7, 0x3e, 0xb5, 0xbc, 0x58, 0xc8, 0xaf, 0x3d,
  0x91, 0x97, 0xed, 0x3d, 0x1f, 0xb4, 0xe8, 0xbe, 0xf6, 0x34, 0x99, 0xbe,
  0x2b, 0xab, 0xcb, 0xbe, 0xdb, 0xfc, 0xca, 0xbd, 0xce, 0xbd, 0x94, 0x3d,
  0x42, 0xda, 0x28, 0xbe, 0x3b, 0xe0, 0x84, 0x3e, 0x99, 0x07, 0x9f, 0x3e,
  0xd0, 0x81, 0x4b, 0xbe, 0xa7, 0xc9, 0x99, 0x3e, 0x31, 0x78, 0x1a, 0x3e,
  0x54, 0x02, 0xcb, 0x3e, 0xa3, 0x6c, 0xc2, 0x3e, 0x3b, 0xc6, 0xeb, 0xbd,
  0xeb, 0x79, 0x0f, 0xbe, 0xbd, 0x37, 0xa0, 0x3e, 0x0a, 0xc5, 0x99, 0x3e,
  0x94, 0x3b, 0x0e, 0x3f, 0x31, 0xc1, 0x65, 0xbe, 0xae, 0xc4, 0x85, 0xbe,
  0x1a, 0xd9, 0xde, 0x3d, 0xb2, 0x35, 0x5d, 0x3c, 0xe4, 0x80, 0xea, 0xbe,
  0x78, 0x00, 0x97, 0x3e, 0x69, 0x54, 0x6e, 0x3e, 0x0a, 0xe1, 0x9c, 0x3e,
  0xae, 0x15, 0xd4, 0xbe, 0x85, 0x32, 0x6f, 0xbe, 0x24, 0x64, 0x29, 0xbf,
  0xb9, 0x21, 0x83, 0x3d, 0xba, 0x5f, 0x99, 0xbd, 0x8f, 0x7c, 0x50, 0x3e,
  0x72, 0xf6, 0xb3, 0xbe, 0xde, 0xae, 0xa7, 0x3e, 0x40, 0x38, 0x8d, 0x3e,
  0x46, 0x89, 0x8e, 0x3d, 0xce, 0x1c, 0x89, 0x3e, 0x08, 0xca, 0x53, 0x3e,
  0x9c, 0x5b, 0x20, 0xbf, 0xc0, 0x65, 0x55, 0xba, 0x55, 0x59, 0x8d, 0xbe,
  0x81, 0x11, 0x5c, 0x3d, 0xfb, 0x0d, 0x88, 0x3e, 0x4c, 0x78, 0xf5, 0x3d,
  0x34, 0xa1, 0x3d, 0x3e, 0xff, 0xc3, 0xbd, 0xbd, 0xbb, 0x5f, 0x00, 0x3e,
  0x3a, 0xb2, 0x41, 0x3e, 0x27, 0xef, 0x80, 0x3e, 0x79, 0x44, 0x80, 0xbe,
  0xd8, 0x10, 0xa3, 0x3e, 0x19, 0x6b, 0xa3, 0xbe, 0xb7, 0x99, 0x3b, 0x3e,
  0x2f, 0x58, 0xd4, 0x3e, 0x38, 0x47, 0x8f, 0xbe, 0xd9, 0x8a, 0x33, 0xbc,
  0x65, 0x0a, 0x07, 0xbe, 0x3a, 0x08, 0x50, 0x3e, 0x34, 0xd6, 0x47, 0xbe,
  0x04, 0x8d, 0x6c, 0x3e, 0x4e, 0x7e, 0x41, 0xbc, 0xc7, 0x14, 0xf9, 0x3d,
  0x08, 0x34, 0xb5, 0xbe, 0x7e, 0x3d, 0xa0, 0x3d, 0x64, 0xa6, 0xa2, 0x3d,
  0xdf, 0xe6, 0x44, 0xbd, 0xa0, 0x29, 0x13, 0x3f, 0x2d, 0x9c, 0xb1, 0x3e,
  0x6e, 0xfc, 0xbc, 0x3e, 0xcd, 0x44, 0xfa, 0xbe, 0x99, 0xec, 0x89, 0x3d,
  0xf9, 0x47, 0x5a, 0xbc, 0xc1, 0x3d, 0x49, 0xbe, 0x13, 0xf1, 0x80, 0x3e,
  0x79, 0x7d, 0x1a, 0x3f, 0x67, 0x2e, 0x96, 0xbd, 0x0b, 0x68, 0x85, 0x3e,
  0x24, 0xb8, 0x0a, 0x3d, 0xb1, 0x23, 0x3f, 0xbe, 0xa7, 0xf8, 0xea, 0xbd,
  0xea, 0x43, 0x0b, 0x3c, 0x07, 0x35, 0xac, 0x3d, 0x2a, 0x3b, 0x67, 0x3e,
  0xa9, 0xce, 0xdf, 0xbc, 0x78, 0xb3, 0xa6, 0xbe, 0xb4, 0x49, 0xd6, 0xbe,
  0xc2, 0xf8, 0xfa, 0x3e, 0x5e, 0xe3, 0xba, 0xbe, 0xb1, 0x24, 0x98, 0x3e,
  0x63, 0x37, 0x85, 0x3e, 0xd9, 0xa5, 0x58, 0x3e, 0x95, 0x27, 0x19, 0x3f,
  0x1d, 0x89, 0x9a, 0xbe, 0x20, 0x0b, 0xe5, 0x3d, 0x35, 0xb0, 0xa4, 0x3c,
  0x53, 0x55, 0xbe, 0x3b, 0x4c, 0x29, 0x51, 0xbd, 0xb5, 0x87, 0xde, 0x3a,
  0x21, 0x3d, 0x09, 0x3f, 0xe2, 0xba, 0x43, 0x3f, 0x6d, 0x29, 0x4c, 0x3d,
  0x50, 0xe7, 0xf1, 0xbb, 0x54, 0x87, 0x6d, 0xbd, 0x23, 0x6d, 0xdf, 0x3d,
  0x82, 0xba, 0xb3, 0x3d, 0x99, 0x17, 0x71, 0xbe, 0xfc, 0x11, 0xb7, 0x3e,
  0xec, 0xb8, 0x93, 0xbe, 0xa5, 0xae, 0xca, 0xbe, 0x92, 0x0b, 0xfe, 0xbe,
  0x1d, 0xea, 0xfc, 0x3d, 0xf8, 0xbc, 0xe3, 0xbb, 0xa8, 0x31, 0x50, 0xbd,
  0x4b, 0x21, 0x3d, 0x3e, 0x2a, 0x13, 0x10, 0xbe, 0xb3, 0xee, 0x37, 0x3e,
  0xae, 0x53, 0x8a, 0x3d, 0x92, 0x28, 0x47, 0xbe, 0x9e, 0x31, 0x82, 0xbe,
  0x03, 0x05, 0x56, 0xbe, 0x63, 0xf5, 0xeb, 0xbd, 0x78, 0x9f, 0x39, 0xbe,
  0x93, 0x34, 0x3e, 0x3d, 0x30, 0xc5, 0x88, 0x3e, 0x43, 0x36, 0xb5, 0x3d,
  0xde, 0xac, 0xe6, 0xbe, 0x9e, 0xfe, 0x80, 0xbe, 0xb9, 0xbd, 0xce, 0xbe,
  0x4e, 0x0b, 0x8a, 0xbd, 0xb8, 0x00, 0xd9, 0xbe, 0xd6, 0xf5, 0x2d, 0xbe,
  0x38, 0x32, 0x7c, 0x3e, 0x04, 0xa0, 0x0c, 0x3f, 0xeb, 0x09, 0x0b, 0x3d,
  0x26, 0x9e, 0x28, 0x3d, 0xdf, 0xe6, 0xc7, 0x3d, 0x09, 0x98, 0xa2, 0x3e,
  0x19, 0xef, 0x09, 0xbe, 0x61, 0x2d, 0x9d, 0xbd, 0xfb, 0xcc, 0x88, 0x3e,
  0xa7, 0x79, 0x5d, 0x3d, 0x14, 0xbb, 0x16, 0xbe, 0xad, 0xea, 0x6f, 0xbe,
  0xf0, 0xa4, 0x7d, 0x3d, 0x61, 0x8c, 0x43, 0xbd, 0x5f, 0xbf, 0xef, 0xbe,
  0x76, 0xf1, 0xc4, 0xbd, 0xea, 0xaa, 0x44, 0x3e, 0xec, 0xe5, 0x1c, 0xbe,
  0x18, 0xa2, 0x0c, 0xbd, 0x4b, 0x13, 0xb0, 0x3e, 0x0f, 0xe8, 0x21, 0xbe,
  0x56, 0x36, 0xbc, 0xbe, 0x80, 0x3a, 0x70, 0x3d, 0x8c, 0xb1, 0xb9, 0xbd,
  0x5c, 0xe2, 0x2c, 0x3f, 0x99, 0x8d, 0xff, 0x3d, 0x22, 0x77, 0xdd, 0xbe,
  0x81, 0x63, 0x05, 0xbe, 0x54, 0xbf, 0x21, 0x3d, 0x89, 0xbe, 0xa8, 0xbe,
  0x4d, 0x28, 0x4d, 0xbe, 0x72, 0x47, 0x98, 0xbd, 0x96, 0x84, 0x92, 0x3e,
  0x6f, 0x2d, 0x87, 0x3e, 0x2e, 0x4b, 0xc7, 0xbe, 0x85, 0xee, 0xbf, 0x3e,
  0xc4, 0x97, 0xb0, 0x3e, 0x13, 0x39, 0x11, 0xbe, 0xdd, 0xf6, 0xfe, 0x3c,
  0x59, 0x38, 0x43, 0xbe, 0x2d, 0x4e, 0xd0, 0x3d, 0x35, 0x3b, 0xa1, 0xbe,
  0x7d, 0x8f, 0xfd, 0xbe, 0x3e, 0x2c, 0xf8, 0x3c, 0x1f, 0x10, 0x7d, 0xbd,
  0x86, 0x4e, 0x95, 0xbe, 0xfa, 0x9e, 0xa3, 0xbc, 0x66, 0xb6, 0xff, 0xff,
  0x04, 0x00, 0x00, 0x00, 0x50, 0x00, 0x00, 0x00, 0xae, 0x20, 0xdc, 0xbd,
  0x94, 0x9e, 0x08, 0x3e, 0xb4, 0xe7, 0xff, 0xbd, 0xbd, 0x10, 0xa0, 0x3d,
  0xb6, 0x7f, 0x3f, 0xbd, 0x00, 0xdb, 0xae, 0xbd, 0xec, 0x8a, 0x04, 0xbd,
  0x52, 0xca, 0x8d, 0x3d, 0x75, 0x6c, 0xe8, 0x3d, 0x79, 0x6b, 0x77, 0x3d,
  0x4d, 0x64, 0xb4, 0x3c, 0x07, 0x05, 0xbc, 0x3d, 0xd9, 0x17, 0x63, 0xbd,
  0x84, 0x56, 0xf7, 0x3d, 0xd4, 0x1f, 0x07, 0x3d, 0xed, 0x64, 0x8f, 0x3d,
  0x06, 0xc5, 0xa8, 0x3c, 0x58, 0x60, 0x43, 0xbe, 0xc6, 0x23, 0x0e, 0xbe,
  0x09, 0x20, 0x25, 0x3e, 0xc2, 0xb6, 0xff, 0xff, 0x04, 0x00, 0x00, 0x00,
  0x04, 0x00, 0x00, 0x00, 0x01, 0x00, 0x00, 0x00, 0xd2, 0xb6, 0xff, 0xff,
  0x04, 0x00, 0x00, 0x00, 0x08, 0x00, 0x00, 0x00, 0xff, 0xff, 0xff, 0xff,
  0x14, 0x00, 0x00, 0x00, 0x00, 0x99, 0xff, 0xff, 0x04, 0x99, 0xff, 0xff,
  0x08, 0x99, 0xff, 0xff, 0x0c, 0x99, 0xff, 0xff, 0x10, 0x99, 0xff, 0xff,
  0x14, 0x99, 0xff, 0xff, 0x18, 0x99, 0xff, 0xff, 0x1c, 0x99, 0xff, 0xff,
  0x20, 0x99, 0xff, 0xff, 0x24, 0x99, 0xff, 0xff, 0x28, 0x99, 0xff, 0xff,
  0x2c, 0x99, 0xff, 0xff, 0x30, 0x99, 0xff, 0xff, 0x34, 0x99, 0xff, 0xff,
  0x38, 0x99, 0xff, 0xff, 0x3c, 0x99, 0xff, 0xff, 0x40, 0x99, 0xff, 0xff,
  0x44, 0x99, 0xff, 0xff, 0x48, 0x99, 0xff, 0xff, 0x4c, 0x99, 0xff, 0xff,
  0x50, 0x99, 0xff, 0xff, 0x3a, 0xb7, 0xff, 0xff, 0x04, 0x00, 0x00, 0x00,
  0xe0, 0x01, 0x00, 0x00, 0x31, 0xb7, 0x6f, 0x3e, 0x7c, 0xf9, 0xf5, 0x3e,
  0xe8, 0x29, 0x73, 0xbd, 0x23, 0xec, 0xc8, 0xbe, 0x6f, 0xe7, 0xc9, 0x3e,
  0xb0, 0x76, 0xc3, 0x3e, 0xc3, 0x92, 0xbb, 0x3d, 0x6f, 0x2b, 0xbc, 0x3e,
  0xc6, 0xab, 0xcc, 0x3e, 0x4e, 0x82, 0xd8, 0xbd, 0x73, 0xa2, 0x91, 0xbe,
  0xce, 0x57, 0x55, 0xbe, 0xd6, 0x61, 0xc6, 0xbe, 0xd9, 0x92, 0xb2, 0x3d,
  0xfb, 0x46, 0xee, 0xbe, 0x06, 0xa1, 0x2b, 0x3c, 0x70, 0xb3, 0x97, 0xbe,
  0xfc, 0x2e, 0xa9, 0x3e, 0x6e, 0xee, 0x1a, 0xbb, 0xb1, 0x8b, 0xfa, 0xbd,
  0x73, 0x71, 0xef, 0x3e, 0x1a, 0x7c, 0xda, 0xbe, 0x68, 0xa3, 0x09, 0x3e,
  0xa4, 0xc7, 0xd5, 0xbe, 0x3f, 0xe7, 0x46, 0xbe, 0xdf, 0x98, 0x17, 0x3f,
  0x61, 0x9b, 0xee, 0xbc, 0x72, 0x91, 0xc6, 0xbd, 0x77, 0x7f, 0x0d, 0xbf,
  0x22, 0x02, 0xe9, 0x3e, 0x7a, 0xf7, 0x16, 0x3e, 0xbb, 0x55, 0x3d, 0x3e,
  0x27, 0x8b, 0x3b, 0x3e, 0x1a, 0x9d, 0x8e, 0xbd, 0x74, 0x66, 0x11, 0x3e,
  0xfb, 0x1b, 0x8e, 0xbe, 0x8f, 0x93, 0xb7, 0xbe, 0x1c, 0x56, 0x91, 0x3e,
  0xdd, 0x37, 0xb6, 0xbc, 0xc9, 0x95, 0x3a, 0xbe, 0x25, 0xee, 0x9b, 0xbe,
  0x58, 0xe2, 0xd5, 0x3d, 0xee, 0x9b, 0x93, 0xbd, 0x4c, 0xe1, 0x34, 0x3d,
  0x99, 0x4f, 0x05, 0x3f, 0x52, 0xff, 0x86, 0x3c, 0x4b, 0x6f, 0x9e, 0x3e,
  0xd8, 0xda, 0xe6, 0xbd, 0x09, 0x32, 0x4c, 0x3d, 0x4c, 0x8e, 0x5d, 0x3d,
  0x68, 0xbc, 0x04, 0xbe, 0xc4, 0xac, 0xe8, 0xbe, 0x04, 0x8a, 0x00, 0x3d,
  0xc7, 0x09, 0x8d, 0x3e, 0xe9, 0x2d, 0xed, 0x3e, 0xa5, 0x12, 0xeb, 0xbe,
  0x41, 0x7d, 0x56, 0x3e, 0xbb, 0x9c, 0xb7, 0xbd, 0x77, 0x09, 0xaa, 0x3e,
  0xf9, 0x94, 0xff, 0xbe, 0x02, 0x75, 0xa4, 0xbe, 0xd7, 0x5b, 0x22, 0xbf,
  0x9a, 0x7b, 0x04, 0xbf, 0x00, 0xfa, 0x8d, 0xbe, 0x9e, 0xca, 0x98, 0xbe,
  0xc8, 0xe4, 0xcb, 0xbe, 0x28, 0x50, 0xc8, 0x3b, 0x18, 0x14, 0xc9, 0x3c,
  0x54, 0xbe, 0xc0, 0xbe, 0x76, 0x35, 0x7c, 0x3e, 0x31, 0x37, 0x95, 0xbe,
  0x67, 0xcb, 0xed, 0xbe, 0x44, 0xa4, 0x6f, 0x3e, 0x5b, 0x01, 0x20, 0xbe,
  0x8d, 0x9f, 0x88, 0xbe, 0x89, 0xe4, 0x0d, 0x3e, 0x7f, 0x70, 0xb7, 0x3d,
  0x30, 0x8e, 0xa2, 0xbe, 0xb4, 0x57, 0x88, 0x3d, 0x42, 0x66, 0x6e, 0x3e,
  0xcd, 0x3d, 0xd4, 0xbe, 0x04, 0x42, 0x76, 0xbe, 0xa9, 0xcd, 0x78, 0xbe,
  0xc2, 0x6f, 0x64, 0x3e, 0xc2, 0x7b, 0x08, 0x3f, 0xf6, 0xab, 0xd7, 0x3e,
  0x4c, 0xae, 0x54, 0x3e, 0xbc, 0x7f, 0x14, 0x3e, 0x68, 0xcb, 0x51, 0xbd,
  0x18, 0xb6, 0xed, 0xbe, 0x58, 0x0a, 0x66, 0xbd, 0x8c, 0x03, 0xf8, 0x3e,
  0x96, 0x81, 0x1e, 0x3e, 0xc3, 0xe5, 0xd8, 0x3e, 0x1b, 0x9d, 0x4d, 0xbe,
  0x82, 0x88, 0x78, 0x3e, 0x2a, 0x51, 0x79, 0xbe, 0xe4, 0xce, 0x3b, 0xbd,
  0x2a, 0xbe, 0xab, 0x3e, 0x08, 0xab, 0xaa, 0xbc, 0x87, 0xac, 0x19, 0x3e,
  0xa5, 0x27, 0xbf, 0xbd, 0x1a, 0xd1, 0x0c, 0xbe, 0x7a, 0x4a, 0x95, 0xbc,
  0xe5, 0xff, 0x68, 0x3e, 0xcc, 0x3c, 0x15, 0x3e, 0xa0, 0x0a, 0x86, 0xbe,
  0xef, 0x89, 0x66, 0xbd, 0x6f, 0x89, 0xd1, 0x3d, 0x92, 0x81, 0xe0, 0x3d,
  0xd4, 0xf9, 0xac, 0x3e, 0x68, 0x04, 0xee, 0xbe, 0xc6, 0xb9, 0x97, 0x3d,
  0x4b, 0xf2, 0x59, 0xbd, 0x05, 0x06, 0xff, 0xbe, 0xd0, 0xa6, 0x38, 0xbe,
  0x1a, 0x90, 0x21, 0x3e, 0x15, 0xb9, 0x9d, 0xbe, 0x55, 0xf1, 0x83, 0x3e,
  0xe9, 0x46, 0xf5, 0x3e, 0x26, 0xb9, 0xff, 0xff, 0x04, 0x00, 0x00, 0x00,
  0x40, 0x06, 0x00, 0x00, 0xc6, 0x6a, 0x3f, 0xbd, 0xbd, 0xec, 0x53, 0x3e,
  0x9d, 0x30, 0x5a, 0xbe, 0xf9, 0x35, 0x22, 0x3e, 0xf1, 0x9c, 0x9a, 0x3e,
  0xdb, 0x32, 0x2c, 0xbe, 0xb4, 0xbd, 0x0b, 0x3e, 0x84, 0xef, 0x16, 0xbe,
  0x21, 0x4e, 0x34, 0x3e, 0x69, 0xe2, 0x08, 0x3e, 0x69, 0x26, 0x16, 0x3d,
  0x00, 0xd5, 0x02, 0x3f, 0x0f, 0x7c, 0xf0, 0xbb, 0x23, 0x4d, 0x7e, 0x3c,
  0x56, 0xd1, 0xd9, 0xbd, 0xa5, 0x2d, 0xaf, 0x3d, 0x88, 0x54, 0xb1, 0x3d,
  0xfa, 0xc7, 0xc5, 0x3e, 0xb0, 0xc1, 0xd9, 0x3e, 0x6f, 0x36, 0x27, 0x3e,
  0xa2, 0x7b, 0xae, 0xbe, 0x3f, 0x97, 0xdb, 0xbe, 0x3f, 0x55, 0xa2, 0xbe,
  0x3f, 0x8f, 0x5f, 0x3d, 0xb6, 0xd5, 0x5e, 0xbe, 0x11, 0xf5, 0xcd, 0x3e,
  0xb9, 0xab, 0xca, 0x3e, 0xef, 0xe4, 0x68, 0x3d, 0xb1, 0x5d, 0x5b, 0x3c,
  0xcc, 0xd3, 0x08, 0x3f, 0x71, 0x09, 0xb6, 0x3d, 0xbc, 0x59, 0x84, 0x3e,
  0xb9, 0x84, 0xa1, 0xbd, 0xeb, 0x6d, 0x9b, 0xbe, 0xbf, 0x9f, 0xc4, 0x3d,
  0xec, 0x99, 0x55, 0xbe, 0x03, 0x94, 0x2a, 0xbd, 0x2a, 0xdd, 0xb1, 0xbe,
  0x7e, 0x09, 0x60, 0x3e, 0x84, 0xce, 0x6c, 0xbe, 0x0a, 0x7c, 0x9f, 0x3d,
  0x11, 0x54, 0xb5, 0x3e, 0x83, 0xe2, 0x7f, 0xbc, 0x12, 0x49, 0x25, 0x3e,
  0x76, 0xd4, 0x98, 0x3e, 0x47, 0xd8, 0xb2, 0x3d, 0xc2, 0xbd, 0xb3, 0x3e,
  0xdc, 0x56, 0x63, 0x3e, 0x79, 0x1f, 0x61, 0xbe, 0x0c, 0x2e, 0xb0, 0xbc,
  0xcb, 0xa2, 0x1a, 0x3e, 0x45, 0xb5, 0x91, 0xbd, 0x51, 0xbf, 0xe6, 0x3c,
  0x3b, 0xda, 0xac, 0x3d, 0x2f, 0xbd, 0x19, 0x3f, 0x23, 0x34, 0x83, 0x3d,
  0x0f, 0xad, 0x0a, 0x3d, 0xc9, 0x88, 0x24, 0x3e, 0x2f, 0x7b, 0x49, 0x3e,
  0xf0, 0xd6, 0xba, 0xbe, 0x50, 0xfe, 0x73, 0xbe, 0x93, 0x26, 0x4d, 0x3d,
  0x5c, 0x1b, 0x8a, 0x3e, 0x26, 0x96, 0x9e, 0x3d, 0xe8, 0xd5, 0x3a, 0xbe,
  0x07, 0xba, 0xe9, 0x3d, 0xa7, 0x45, 0x95, 0x3d, 0xff, 0x10, 0xac, 0xbe,
  0xa7, 0x5b, 0x93, 0x3c, 0x36, 0xb4, 0x1b, 0x3e, 0xe9, 0x49, 0x88, 0x3e,
  0x6e, 0xbf, 0x7a, 0x3e, 0x04, 0x4a, 0xb9, 0x3e, 0xa7, 0x39, 0x08, 0xbd,
  0xc5, 0x9b, 0x2e, 0x3e, 0x6a, 0x29, 0x0e, 0xbd, 0x2e, 0x1d, 0x2d, 0xbf,
  0x6a, 0x95, 0x20, 0x3e, 0x8b, 0x6a, 0x72, 0xbe, 0x08, 0x12, 0xb7, 0xbd,
  0x90, 0x64, 0x36, 0x3e, 0x2e, 0x7f, 0xe2, 0x3d, 0x61, 0xa2, 0xc1, 0xbd,
  0x9e, 0xa7, 0xd7, 0xbb, 0xc7, 0x70, 0x3f, 0xbe, 0x33, 0x86, 0xee, 0xbe,
  0x89, 0xd6, 0x43, 0xbd, 0x08, 0x78, 0xc6, 0x3e, 0xa0, 0xe0, 0x1a, 0xbd,
  0x4a, 0xcb, 0xe1, 0x3e, 0x9d, 0x4b, 0xfd, 0x3e, 0x2b, 0xa5, 0xe9, 0x3d,
  0x0b, 0x90, 0x70, 0x3e, 0xca, 0xc5, 0x4d, 0xbe, 0xb8, 0x64, 0xd7, 0x3d,
  0x38, 0x56, 0x1e, 0x3e, 0x0d, 0x70, 0xa6, 0xbe, 0x84, 0x72, 0x56, 0xbe,
  0x3b, 0xd9, 0x07, 0x3e, 0x2b, 0xb0, 0xaa, 0xbe, 0x12, 0x83, 0x0e, 0x3e,
  0xee, 0x24, 0x89, 0x3e, 0xf5, 0xdf, 0xbd, 0xbe, 0xe7, 0xb8, 0x1b, 0xbe,
  0x8e, 0x82, 0xa4, 0x3e, 0x74, 0x71, 0xa1, 0x3e, 0xb0, 0x63, 0x76, 0xbe,
  0x2d, 0x43, 0xc6, 0x3e, 0x56, 0x71, 0x97, 0xbd, 0x5a, 0x1a, 0x1c, 0xbe,
  0x36, 0x05, 0xc8, 0x3e, 0x2a, 0xbb, 0x36, 0x3e, 0xc4, 0x0b, 0x31, 0x3d,
  0x98, 0xe4, 0xf6, 0x3e, 0xd8, 0x55, 0x5c, 0xbe, 0xab, 0x0b, 0x9a, 0xbe,
  0x53, 0x38, 0x9a, 0xbc, 0x07, 0x30, 0x96, 0xbc, 0xbf, 0xba, 0xb2, 0xbd,
  0xf0, 0x45, 0x69, 0x3e, 0x9a, 0x73, 0x11, 0x3e, 0x4b, 0xa9, 0x9e, 0xbd,
  0xad, 0xbf, 0x42, 0xbd, 0x57, 0xb5, 0x11, 0x3e, 0xf5, 0x5a, 0x97, 0xbd,
  0xd9, 0x57, 0x5b, 0xbc, 0x87, 0x56, 0x98, 0xbe, 0x64, 0xf3, 0x96, 0x3e,
  0x6d, 0x21, 0x47, 0x3e, 0x72, 0x4c, 0x16, 0x3e, 0x39, 0xbe, 0x00, 0xbf,
  0x47, 0xcc, 0xc7, 0x3e, 0x31, 0x72, 0xdd, 0x3e, 0x00, 0xa3, 0xae, 0x3e,
  0x6b, 0x4b, 0xb1, 0x3d, 0x16, 0x4f, 0xb2, 0x3d, 0x83, 0x09, 0x60, 0x3e,
  0xfe, 0xa5, 0xbe, 0x3d, 0xa7, 0x5e, 0xa0, 0xbd, 0xb5, 0xac, 0xaf, 0xbe,
  0xf1, 0xb3, 0x4a, 0x3e, 0x40, 0xe6, 0x04, 0xbe, 0xcc, 0xc4, 0x2f, 0x3e,
  0x0e, 0x8b, 0x74, 0x3d, 0x32, 0xb4, 0x09, 0xbf, 0x45, 0xce, 0xd1, 0x3e,
  0x82, 0x69, 0x42, 0xbe, 0x71, 0x06, 0x49, 0xbe, 0xcb, 0xea, 0xd3, 0xbe,
  0x8f, 0x94, 0xae, 0xbc, 0x24, 0xc3, 0x7b, 0x3d, 0xdf, 0x32, 0xb6, 0x3d,
  0xe3, 0x23, 0x0c, 0x3d, 0x15, 0x5a, 0x73, 0x3e, 0xb4, 0x4a, 0x57, 0xbe,
  0x51, 0x07, 0xc7, 0x3d, 0xf5, 0x5c, 0x42, 0xbe, 0xba, 0x76, 0xb0, 0xbd,
  0x27, 0xdf, 0xdb, 0x3e, 0x68, 0xda, 0x6a, 0xbe, 0x37, 0x38, 0xdb, 0xbe,
  0x22, 0xa0, 0xbc, 0x3d, 0x0a, 0xe4, 0x61, 0xbd, 0xae, 0xf9, 0xe2, 0x3e,
  0xd8, 0x7b, 0x47, 0xbe, 0x27, 0x76, 0x3d, 0x3e, 0xbb, 0x99, 0xff, 0xbe,
  0xb3, 0x0d, 0xcb, 0x3e, 0xe0, 0xfa, 0x3e, 0xbe, 0x17, 0xa4, 0x52, 0x3e,
  0x74, 0xea, 0x74, 0xbc, 0x52, 0xc7, 0x90, 0xbe, 0x27, 0x51, 0x82, 0xbe,
  0x38, 0x2a, 0xb8, 0xbc, 0x9b, 0x48, 0x9c, 0x3e, 0x7b, 0xf2, 0x12, 0x3e,
  0x3d, 0x15, 0x49, 0xbe, 0x9c, 0x70, 0xb5, 0x3d, 0x4e, 0x90, 0x05, 0x3c,
  0x8f, 0x9d, 0x61, 0x3b, 0xcc, 0x85, 0xc4, 0xbe, 0x8f, 0xf0, 0xf8, 0x3d,
  0xfc, 0xd7, 0xe0, 0xbd, 0x1d, 0xe2, 0xfd, 0xbe, 0x32, 0x4a, 0x39, 0x3e,
  0x76, 0x7a, 0x84, 0x3d, 0x79, 0xe2, 0x7d, 0xbe, 0x36, 0xc4, 0xa9, 0x3d,
  0x58, 0x65, 0x30, 0x3d, 0x54, 0x11, 0x8b, 0xbe, 0x0b, 0x4a, 0xb2, 0xbe,
  0xb1, 0x51, 0xb6, 0x3d, 0xc2, 0x7b, 0x0e, 0x3e, 0x2f, 0x19, 0x31, 0xbe,
  0x87, 0x5b, 0x05, 0xbd, 0x3e, 0x87, 0x53, 0x3e, 0xb2, 0xd3, 0x20, 0xbe,
  0x59, 0x28, 0x56, 0xbe, 0x04, 0x01, 0xcb, 0x3d, 0x3a, 0x2f, 0x80, 0xbe,
  0x4b, 0x54, 0xb7, 0x3d, 0xdb, 0xdf, 0x28, 0xbf, 0x00, 0xdf, 0x4e, 0xba,
  0x96, 0xa3, 0x25, 0xbd, 0x11, 0x70, 0xe6, 0x3b, 0xc3, 0xe3, 0x94, 0xbe,
  0x82, 0x40, 0x6f, 0xbe, 0x7e, 0x24, 0xcf, 0x3d, 0xbb, 0x93, 0x8c, 0xbe,
  0x6b, 0xdd, 0x8e, 0xbe, 0xfa, 0x5f, 0x12, 0x3e, 0xc4, 0xb2, 0x51, 0x3e,
  0x09, 0x24, 0x3a, 0xbe, 0x7e, 0x31, 0xe1, 0xbd, 0xa9, 0xe3, 0x80, 0x3e,
  0x6f, 0xae, 0xc2, 0xbe, 0xcd, 0xae, 0x5a, 0xbe, 0x81, 0x85, 0x75, 0xbd,
  0x1b, 0x7e, 0xb1, 0x3e, 0xa2, 0xb0, 0xb4, 0x3c, 0x9c, 0xa9, 0x24, 0x3e,
  0xaf, 0x10, 0x4a, 0x3e, 0xda, 0x05, 0x4e, 0xbf, 0xf7, 0x68, 0x1d, 0x3e,
  0x8c, 0x63, 0xb0, 0xbe, 0x3e, 0x94, 0x34, 0x3d, 0xd0, 0xc3, 0x38, 0xbd,
  0xde, 0x52, 0x1e, 0xbe, 0xcd, 0xdd, 0x43, 0x3e, 0x50, 0x02, 0x2b, 0xbe,
  0xd6, 0x59, 0xa4, 0xbc, 0x49, 0x73, 0xbd, 0x3d, 0xb2, 0xf7, 0x22, 0x3c,
  0xbf, 0xd1, 0xfe, 0xbd, 0x5d, 0x31, 0xfb, 0x3d, 0xaf, 0xae, 0x15, 0x3e,
  0xa0, 0x5d, 0xd4, 0xbd, 0x51, 0x0b, 0xf0, 0x3d, 0x53, 0x8e, 0x2f, 0x3e,
  0x0b, 0x77, 0x16, 0xbc, 0x85, 0x12, 0x3e, 0xbc, 0x52, 0x93, 0x14, 0xbd,
  0xca, 0x08, 0x3e, 0xbd, 0x36, 0x62, 0xd8, 0xbe, 0x71, 0xae, 0xf0, 0xbe,
  0xda, 0x8c, 0x8d, 0xbe, 0x70, 0x59, 0x77, 0x3e, 0x17, 0xd3, 0xe8, 0x3c,
  0x7a, 0xec, 0x3c, 0xbe, 0xe3, 0x23, 0x13, 0x3d, 0xd7, 0x38, 0x3b, 0xbc,
  0x09, 0xe1, 0x31, 0xbc, 0x62, 0x04, 0xba, 0xbd, 0x68, 0x3a, 0x97, 0x3e,
  0xda, 0xea, 0x97, 0x3e, 0x17, 0x99, 0x9d, 0x3e, 0x45, 0x13, 0xa1, 0x3d,
  0x0e, 0xc8, 0x87, 0x3d, 0x64, 0x34, 0x8d, 0xbe, 0x3e, 0xc1, 0xf5, 0x3e,
  0xc4, 0xae, 0x46, 0x3d, 0xac, 0x64, 0xfa, 0xbd, 0x46, 0x35, 0x56, 0xbd,
  0x10, 0x32, 0x54, 0xbe, 0xe8, 0x9c, 0x00, 0xbc, 0xa0, 0x25, 0x70, 0x3e,
  0xf0, 0xec, 0xe6, 0xbe, 0x28, 0x60, 0x7b, 0xbe, 0x9d, 0xa3, 0x21, 0xbd,
  0x5c, 0x48, 0x1a, 0x3f, 0xba, 0xb2, 0x5f, 0x3e, 0xfc, 0x09, 0x03, 0xbc,
  0xa7, 0x51, 0x8d, 0x3e, 0x98, 0xc1, 0xd8, 0xbd, 0x4f, 0x5a, 0xaa, 0x3e,
  0x28, 0x36, 0x74, 0x3e, 0xb5, 0xce, 0x97, 0x3e, 0xb2, 0xbf, 0xd3, 0xbd,
  0x2a, 0x48, 0xe3, 0x3d, 0xb7, 0x5b, 0xa9, 0x3e, 0xd8, 0xb8, 0xab, 0x3e,
  0xee, 0x5e, 0x81, 0x3e, 0xdb, 0x4e, 0x42, 0x3e, 0x42, 0x1f, 0x16, 0x3e,
  0xbd, 0x59, 0xb6, 0x3e, 0x09, 0xcc, 0x00, 0x3e, 0x32, 0xd1, 0xc9, 0x3d,
  0x70, 0x4c, 0x23, 0xbe, 0x7a, 0x87, 0xe9, 0x3d, 0xab, 0x4d, 0xb8, 0xbd,
  0xbb, 0x02, 0xb9, 0x3d, 0x01, 0xf6, 0x98, 0x3e, 0xf1, 0x41, 0xc0, 0xbd,
  0xe2, 0x9a, 0xab, 0x3e, 0x5f, 0x2a, 0x25, 0x3e, 0xca, 0xa0, 0x90, 0x3e,
  0xab, 0xdb, 0x74, 0xbe, 0x03, 0x8e, 0x3b, 0xbf, 0x8a, 0xfb, 0x17, 0xbe,
  0x7b, 0xf9, 0xcd, 0x3d, 0x6e, 0x8a, 0xec, 0x3e, 0xb9, 0xed, 0x05, 0x3c,
  0x80, 0x82, 0x3b, 0xbd, 0x20, 0x66, 0x41, 0xba, 0xc1, 0xc7, 0xf0, 0x3e,
  0xf3, 0x5c, 0x35, 0x3e, 0xaa, 0xe2, 0x62, 0x3e, 0x2a, 0x1d, 0xb4, 0x3e,
  0x57, 0x1e, 0x00, 0x3d, 0xb0, 0x82, 0x84, 0x3e, 0xa2, 0x42, 0xaf, 0xbe,
  0xb8, 0x6d, 0xd9, 0xbc, 0x47, 0x0a, 0xab, 0x3d, 0xcf, 0xe8, 0xac, 0x3d,
  0xc5, 0x37, 0x26, 0x3e, 0xba, 0x93, 0x7b, 0x3e, 0x67, 0x71, 0xc0, 0xbe,
  0x9a, 0x43, 0xa9, 0x3e, 0x62, 0x2d, 0x54, 0xbd, 0x48, 0x4b, 0x9e, 0x3e,
  0x01, 0xa3, 0x3b, 0x3d, 0x1f, 0x24, 0xcb, 0x3d, 0xb7, 0x3c, 0x9a, 0xbe,
  0x9b, 0x89, 0x20, 0xbe, 0xee, 0xc7, 0x9b, 0x3e, 0xd8, 0x48, 0xcc, 0xbe,
  0x2b, 0xaa, 0x36, 0xbe, 0xca, 0xc5, 0xc0, 0xbe, 0xf5, 0x5e, 0xb2, 0xbd,
  0xd9, 0x2c, 0xcb, 0x3e, 0xea, 0x6a, 0x99, 0xbe, 0x24, 0x31, 0xac, 0xbe,
  0xfe, 0x72, 0x8d, 0xbd, 0x65, 0xc8, 0xbb, 0x3e, 0x78, 0x06, 0x08, 0xbe,
  0x7f, 0xb4, 0x28, 0xbe, 0xc5, 0x70, 0x8c, 0xbd, 0x3a, 0xd5, 0x56, 0x3b,
  0xc4, 0xa1, 0x39, 0xbe, 0x17, 0x6c, 0x25, 0xbe, 0xe4, 0x85, 0xaa, 0x3e,
  0x2f, 0x44, 0xce, 0x3d, 0xce, 0x64, 0x76, 0x3e, 0xee, 0xc8, 0xf4, 0xbd,
  0x7e, 0x28, 0xc3, 0xbd, 0x56, 0x05, 0x00, 0x3e, 0x9b, 0xde, 0x6e, 0xbe,
  0x5c, 0x7d, 0xeb, 0xbd, 0x88, 0x45, 0x58, 0xbe, 0x50, 0xfe, 0xff, 0x3c,
  0x52, 0xa1, 0x89, 0xbd, 0x0a, 0x65, 0x98, 0x3e, 0x0a, 0x96, 0x04, 0xbf,
  0xda, 0x4a, 0xfa, 0xbe, 0x61, 0xf0, 0xbc, 0xbd, 0x7f, 0x7d, 0x51, 0xbd,
  0x26, 0xa2, 0x13, 0xbd, 0x6d, 0x1d, 0x59, 0x3e, 0x7c, 0xb1, 0x91, 0xbe,
  0x75, 0x8f, 0x2e, 0xbe, 0xb6, 0x4d, 0x86, 0xbd, 0x63, 0xab, 0x2b, 0xbf,
  0x7d, 0xf4, 0x2d, 0xbe, 0xf4, 0xb1, 0xae, 0x3c, 0xfb, 0x46, 0x65, 0x3d,
  0x9f, 0x6e, 0x04, 0x3e, 0x6c, 0x8b, 0xfb, 0xbd, 0xf5, 0x04, 0x42, 0xbe,
  0x73, 0x37, 0x59, 0x3c, 0x1d, 0x45, 0x4d, 0xbe, 0xc2, 0x86, 0x94, 0x3e,
  0x1a, 0x8f, 0x71, 0x3c, 0xfe, 0x79, 0xbe, 0xbc, 0xf0, 0xc1, 0xbc, 0x3d,
  0x75, 0x27, 0xf9, 0xbd, 0x5c, 0xa4, 0x11, 0x3f, 0x39, 0x4c, 0x36, 0xbd,
  0xb2, 0x0e, 0x7c, 0x3e, 0x73, 0x65, 0x8c, 0xbe, 0xfd, 0xc4, 0x73, 0xbe,
  0x1b, 0x9b, 0xb1, 0xbd, 0x60, 0x64, 0x56, 0xbd, 0x7d, 0x19, 0x55, 0xbe,
  0xfe, 0xdb, 0xfb, 0x3d, 0xa9, 0x8d, 0x23, 0xbc, 0xb5, 0xf0, 0x2b, 0xbe,
  0x3c, 0xa3, 0x91, 0x3a, 0xdc, 0x8d, 0x9b, 0xbd, 0xeb, 0x20, 0x45, 0xbf,
  0xbb, 0x5f, 0xf1, 0x3c, 0xce, 0x2e, 0x1f, 0xbe, 0xda, 0x2e, 0x57, 0x3d,
  0x96, 0x5c, 0x00, 0x3f, 0xe0, 0x55, 0x91, 0xbe, 0x0a, 0x55, 0x04, 0xbe,
  0xcc, 0x36, 0x01, 0x3e, 0x9d, 0x97, 0x6d, 0x3e, 0x77, 0x02, 0xe6, 0xbd,
  0x81, 0x13, 0x74, 0xbe, 0xcc, 0x23, 0xfb, 0x3d, 0x72, 0xbf, 0xff, 0xff,
  0x04, 0x00, 0x00, 0x00, 0x50, 0x00, 0x00, 0x00, 0xa7, 0xe1, 0x2e, 0x3d,
  0x1e, 0x44, 0x0c, 0x3d, 0x6e, 0x8c, 0x69, 0xbd, 0xf1, 0x1e, 0x3a, 0x3e,
  0x3a, 0xa4, 0xac, 0xbd, 0xe9, 0x71, 0x39, 0x3d, 0x9a, 0xef, 0xf7, 0x3d,
  0x78, 0x3b, 0x1b, 0xbe, 0x20, 0x5e, 0x08, 0x3e, 0xcc, 0x6e, 0xbc, 0xbd,
  0xae, 0xdd, 0xea, 0x3c, 0xd6, 0x41, 0x36, 0x3e, 0x67, 0xda, 0xa3, 0x3d,
  0xcd, 0xdd, 0xb3, 0x3b, 0xfc, 0x9c, 0x9c, 0x3d, 0x9f, 0xbd, 0x83, 0x3d,
  0x01, 0x32, 0xb4, 0xbd, 0x69, 0x30, 0x86, 0xba, 0xa5, 0x27, 0x38, 0xbd,
  0x87, 0xff, 0x02, 0x3e, 0xce, 0xbf, 0xff, 0xff, 0x04, 0x00, 0x00, 0x00,
  0x04, 0x00, 0x00, 0x00, 0x01, 0x00, 0x00, 0x00, 0xde, 0xbf, 0xff, 0xff,
  0x04, 0x00, 0x00, 0x00, 0x08, 0x00, 0x00, 0x00, 0xff, 0xff, 0xff, 0xff,
  0x06, 0x00, 0x00, 0x00, 0x0c, 0xa2, 0xff, 0xff, 0x10, 0xa2, 0xff, 0xff,
  0x14, 0xa2, 0xff, 0xff, 0x18, 0xa2, 0xff, 0xff, 0x1c, 0xa2, 0xff, 0xff,
  0x20, 0xa2, 0xff, 0xff, 0x0a, 0xc0, 0xff, 0xff, 0x04, 0x00, 0x00, 0x00,
  0x04, 0x00, 0x00, 0x00, 0x50, 0x00, 0x00, 0x00, 0x34, 0xa2, 0xff, 0xff,
  0x38, 0xa2, 0xff, 0xff, 0x3c, 0xa2, 0xff, 0xff, 0x40, 0xa2, 0xff, 0xff,
  0x44, 0xa2, 0xff, 0xff, 0x48, 0xa2, 0xff, 0xff, 0x4c, 0xa2, 0xff, 0xff,
  0x50, 0xa2, 0xff, 0xff, 0x54, 0xa2, 0xff, 0xff, 0x58, 0xa2, 0xff, 0xff,
  0x5c, 0xa2, 0xff, 0xff, 0x60, 0xa2, 0xff, 0xff, 0x64, 0xa2, 0xff, 0xff,
  0x68, 0xa2, 0xff, 0xff, 0x6c, 0xa2, 0xff, 0xff, 0x70, 0xa2, 0xff, 0xff,
  0x74, 0xa2, 0xff, 0xff, 0x78, 0xa2, 0xff, 0xff, 0x7c, 0xa2, 0xff, 0xff,
  0x80, 0xa2, 0xff, 0xff, 0x84, 0xa2, 0xff, 0xff, 0x88, 0xa2, 0xff, 0xff,
  0x8c, 0xa2, 0xff, 0xff, 0x90, 0xa2, 0xff, 0xff, 0x94, 0xa2, 0xff, 0xff,
  0x98, 0xa2, 0xff, 0xff, 0x9c, 0xa2, 0xff, 0xff, 0xa0, 0xa2, 0xff, 0xff,
  0xa4, 0xa2, 0xff, 0xff, 0xa8, 0xa2, 0xff, 0xff, 0xac, 0xa2, 0xff, 0xff,
  0xb0, 0xa2, 0xff, 0xff, 0xb4, 0xa2, 0xff, 0xff, 0xb8, 0xa2, 0xff, 0xff,
  0xbc, 0xa2, 0xff, 0xff, 0xc0, 0xa2, 0xff, 0xff, 0xc4, 0xa2, 0xff, 0xff,
  0xc8, 0xa2, 0xff, 0xff, 0xcc, 0xa2, 0xff, 0xff, 0xd0, 0xa2, 0xff, 0xff,
  0xd4, 0xa2, 0xff, 0xff, 0xd8, 0xa2, 0xff, 0xff, 0xdc, 0xa2, 0xff, 0xff,
  0xe0, 0xa2, 0xff, 0xff, 0xe4, 0xa2, 0xff, 0xff, 0xe8, 0xa2, 0xff, 0xff,
  0xec, 0xa2, 0xff, 0xff, 0xf0, 0xa2, 0xff, 0xff, 0xf4, 0xa2, 0xff, 0xff,
  0xf8, 0xa2, 0xff, 0xff, 0xfc, 0xa2, 0xff, 0xff, 0x00, 0xa3, 0xff, 0xff,
  0x04, 0xa3, 0xff, 0xff, 0x08, 0xa3, 0xff, 0xff, 0x0c, 0xa3, 0xff, 0xff,
  0x10, 0xa3, 0xff, 0xff, 0x14, 0xa3, 0xff, 0xff, 0x18, 0xa3, 0xff, 0xff,
  0x1c, 0xa3, 0xff, 0xff, 0x20, 0xa3, 0xff, 0xff, 0x24, 0xa3, 0xff, 0xff,
  0x28, 0xa3, 0xff, 0xff, 0x2c, 0xa3, 0xff, 0xff, 0x30, 0xa3, 0xff, 0xff,
  0x34, 0xa3, 0xff, 0xff, 0x38, 0xa3, 0xff, 0xff, 0x3c, 0xa3, 0xff, 0xff,
  0x40, 0xa3, 0xff, 0xff, 0x44, 0xa3, 0xff, 0xff, 0x2e, 0xc1, 0xff, 0xff,
  0x04, 0x00, 0x00, 0x00, 0x0c, 0x00, 0x00, 0x00, 0x01, 0x00, 0x00, 0x00,
  0x01, 0x00, 0x00, 0x00, 0x01, 0x00, 0x00, 0x00, 0x46, 0xc1, 0xff, 0xff,
  0x04, 0x00, 0x00, 0x00, 0x0c, 0x00, 0x00, 0x00, 0x00, 0x00, 0x00, 0x00,
  0xff, 0xff, 0xff, 0xff, 0x14, 0x00, 0x00, 0x00, 0x5e, 0xc1, 0xff, 0xff,
  0x04, 0x00, 0x00, 0x00, 0x0c, 0x00, 0x00, 0x00, 0xff, 0xff, 0xff, 0xff,
  0x00, 0x00, 0x00, 0x00, 0x00, 0x00, 0x00, 0x00, 0x76, 0xc1, 0xff, 0xff,
  0x04, 0x00, 0x00, 0x00, 0x30, 0x02, 0x00, 0x00, 0xf9, 0x71, 0xcb, 0xbe,
  0xdf, 0x55, 0x0e, 0x3f, 0x81, 0xbf, 0xfb, 0x3d, 0xc3, 0x74, 0x7f, 0x3e,
  0x7c, 0x99, 0x8f, 0x3e, 0x45, 0x3d, 0xe1, 0x3e, 0x8f, 0x5a, 0xc5, 0x3d,
  0x5e, 0xf4, 0xbe, 0xbe, 0x2a, 0x26, 0x65, 0x3f, 0x94, 0xe2, 0x68, 0x3f,
  0xe0, 0x29, 0x56, 0xbe, 0x7b, 0x99, 0x83, 0xbe, 0x39, 0x9b, 0x84, 0x3e,
  0x8d, 0x9e, 0xb5, 0x3d, 0x76, 0x19, 0xfb, 0x3d, 0x7a, 0xcb, 0xa8, 0xbe,
  0x97, 0xc6, 0xb0, 0x3e, 0x70, 0x66, 0xce, 0x3e, 0x13, 0xa6, 0x3e, 0xbf,
  0xf3, 0x5f, 0x94, 0x3e, 0xbb, 0x15, 0x5d, 0x3d, 0xb6, 0xe2, 0x54, 0x3f,
  0xdf, 0xb3, 0x07, 0x3f, 0x45, 0xc0, 0xa1, 0xbe, 0x49, 0x0e, 0xa6, 0x3d,
  0x4e, 0x9d, 0x41, 0xbd, 0xd7, 0x9c, 0x37, 0xbe, 0x9f, 0xad, 0x60, 0x3f,
  0x8d, 0x4f, 0x35, 0xbe, 0x80, 0x7c, 0xcc, 0xbe, 0x38, 0x17, 0xc6, 0x3e,
  0x6a, 0xa7, 0xc0, 0x3e, 0xfe, 0x7a, 0xeb, 0xbe, 0xbb, 0x54, 0x63, 0x3f,
  0x06, 0xe5, 0x66, 0xbe, 0x4f, 0xff, 0x2e, 0x3f, 0x05, 0x1c, 0x8e, 0x3e,
  0x62, 0x6f, 0x81, 0x3f, 0xd3, 0x3e, 0x71, 0x3d, 0xb3, 0x03, 0xe5, 0xbe,
  0x66, 0x0a, 0x23, 0x3f, 0x6f, 0xf6, 0x34, 0x3d, 0x56, 0x9b, 0x65, 0xbe,
  0xc1, 0x5c, 0x89, 0xbf, 0xbd, 0x13, 0x9a, 0xbf, 0x5f, 0x89, 0x80, 0xbd,
  0x64, 0xcc, 0x16, 0x3f, 0xb8, 0x19, 0xa0, 0x3e, 0x96, 0x2f, 0xaa, 0x3e,
  0x3d, 0x9f, 0xae, 0x3d, 0xa2, 0xb0, 0x87, 0xbe, 0x4c, 0x47, 0x7c, 0x3f,
  0xca, 0xe6, 0x76, 0xbe, 0x2d, 0x2e, 0x27, 0xbf, 0x85, 0xef, 0xa5, 0xbe,
  0x0e, 0x04, 0xe0, 0xbd, 0x50, 0xcb, 0xf2, 0xbe, 0x43, 0xa7, 0x9d, 0x3e,
  0x7e, 0xa5, 0xdd, 0x3e, 0x90, 0xcc, 0x2a, 0x3f, 0xd9, 0xe1, 0x5c, 0xbe,
  0x04, 0x94, 0x4e, 0xbd, 0xbf, 0xd3, 0x8c, 0xbe, 0x62, 0xbd, 0xda, 0x3e,
  0xeb, 0xa0, 0x7c, 0xbd, 0x49, 0xe6, 0x20, 0x3e, 0xac, 0x02, 0x87, 0x3e,
  0x30, 0x28, 0x44, 0xbe, 0x7c, 0xf9, 0x19, 0xbf, 0x90, 0x1e, 0x9a, 0x3e,
  0x37, 0x1c, 0xb8, 0xbc, 0x55, 0xdd, 0x2a, 0xbf, 0xb0, 0x0b, 0xbb, 0xbd,
  0xff, 0x97, 0x30, 0xbe, 0xc8, 0x66, 0x97, 0x3e, 0x4b, 0x9e, 0x12, 0xbe,
  0x2f, 0xa2, 0xc6, 0xbe, 0x9d, 0x9a, 0x76, 0xbd, 0x82, 0x78, 0x0b, 0x3f,
  0x9d, 0xfd, 0xa5, 0x3e, 0x17, 0xae, 0xa5, 0xbe, 0x75, 0xb1, 0xb3, 0xbf,
  0xa4, 0x67, 0x3f, 0xbf, 0xc6, 0x8d, 0x4c, 0x3f, 0x78, 0xa4, 0xd0, 0x3e,
  0x09, 0x8c, 0x2d, 0xbe, 0xdf, 0x21, 0xbb, 0xbe, 0xaa, 0xe5, 0xff, 0x3e,
  0x9b, 0x4c, 0xb1, 0xbd, 0x7f, 0x75, 0x13, 0xbf, 0x20, 0xc7, 0x0b, 0xbc,
  0x87, 0xa9, 0x48, 0xbf, 0x67, 0x3f, 0x69, 0x3f, 0xa5, 0x77, 0x00, 0x3f,
  0x9f, 0x58, 0x97, 0x3d, 0xa9, 0xaa, 0xa4, 0x3d, 0xc2, 0x75, 0xdc, 0xbe,
  0x68, 0xf8, 0x6c, 0x3f, 0x58, 0x43, 0xed, 0x3e, 0x70, 0x2f, 0xac, 0xbe,
  0xe8, 0x90, 0xc6, 0x3e, 0x91, 0x78, 0x31, 0x3e, 0xdc, 0x48, 0x19, 0x3f,
  0xcc, 0x4e, 0x79, 0x3f, 0xb4, 0x96, 0x8d, 0x3e, 0x6f, 0xe3, 0xc5, 0xbe,
  0x78, 0xe4, 0x6a, 0xbf, 0x8f, 0x4e, 0x63, 0x3d, 0x15, 0x18, 0xd9, 0xbd,
  0xcd, 0xd1, 0x05, 0xbe, 0x80, 0x17, 0xbf, 0x3e, 0x19, 0xec, 0x89, 0x3e,
  0xf7, 0xda, 0x16, 0xbf, 0xa0, 0x2a, 0x8b, 0x3e, 0xa3, 0xf5, 0xff, 0x3e,
  0x09, 0xed, 0xbe, 0xbd, 0x1a, 0x4a, 0xa2, 0x3d, 0xe2, 0x0d, 0xc9, 0xbe,
  0x1c, 0x29, 0x39, 0xbf, 0x32, 0x3c, 0xc2, 0x3e, 0x57, 0xb8, 0x5e, 0xbe,
  0x4f, 0xc7, 0xec, 0x3e, 0x2b, 0x6b, 0x96, 0xbe, 0x9c, 0xcf, 0xf0, 0xbc,
  0x4f, 0x5d, 0x0b, 0xbe, 0x76, 0x57, 0x1e, 0x3e, 0x29, 0xc5, 0xc6, 0x3d,
  0x5d, 0xba, 0xe8, 0xbc, 0x5f, 0x16, 0xa5, 0xbd, 0xfd, 0x08, 0xcf, 0x3e,
  0x73, 0x8b, 0x24, 0x3e, 0xc6, 0xb5, 0x44, 0xbf, 0xd8, 0xb0, 0x6e, 0xbc,
  0x33, 0xc5, 0xb3, 0xbe, 0x81, 0x91, 0x6d, 0xbd, 0xe1, 0x71, 0xd4, 0xbe,
  0xe8, 0x5c, 0xa2, 0xbd, 0x30, 0x30, 0x91, 0x3d, 0xee, 0x9e, 0xce, 0x3e,
  0x44, 0xa2, 0x2c, 0x3e, 0xb2, 0xc3, 0xff, 0xff, 0x04, 0x00, 0x00, 0x00,
  0x1c, 0x00, 0x00, 0x00, 0xf0, 0x41, 0xf9, 0xbc, 0x8a, 0xf8, 0x72, 0xbf,
  0x45, 0x1e, 0x54, 0x3e, 0xcb, 0xd5, 0x9e, 0x3d, 0x20, 0x12, 0x3c, 0xbf,
  0x22, 0xb6, 0x4c, 0x3e, 0xb3, 0xc7, 0xa6, 0x3e, 0xda, 0xc3, 0xff, 0xff,
  0x04, 0x00, 0x00, 0x00, 0x04, 0x00, 0x00, 0x00, 0x14, 0x00, 0x00, 0x00,
  0x04, 0xa6, 0xff, 0xff, 0xee, 0xc3, 0xff, 0xff, 0x04, 0x00, 0x00, 0x00,
  0x04, 0x00, 0x00, 0x00, 0x00, 0x00, 0x00, 0x00, 0xfe, 0xc3, 0xff, 0xff,
  0x04, 0x00, 0x00, 0x00, 0x0c, 0x00, 0x00, 0x00, 0x01, 0x00, 0x00, 0x00,
  0x00, 0x00, 0x00, 0x00, 0x02, 0x00, 0x00, 0x00, 0x30, 0xa6, 0xff, 0xff,
  0x1a, 0xc4, 0xff, 0xff, 0x04, 0x00, 0x00, 0x00, 0x04, 0x00, 0x00, 0x00,
  0x00, 0x00, 0x00, 0x00, 0x2a, 0xc4, 0xff, 0xff, 0x04, 0x00, 0x00, 0x00,
  0x04, 0x00, 0x00, 0x00, 0x01, 0x00, 0x00, 0x00, 0x3a, 0xc4, 0xff, 0xff,
  0x04, 0x00, 0x00, 0x00, 0x08, 0x00, 0x00, 0x00, 0xff, 0xff, 0xff, 0xff,
  0x14, 0x00, 0x00, 0x00, 0x4e, 0xc4, 0xff, 0xff, 0x04, 0x00, 0x00, 0x00,
  0x08, 0x00, 0x00, 0x00, 0xff, 0xff, 0xff, 0xff, 0x06, 0x00, 0x00, 0x00,
  0x62, 0xc4, 0xff, 0xff, 0x04, 0x00, 0x00, 0x00, 0x04, 0x00, 0x00, 0x00,
  0x50, 0x00, 0x00, 0x00, 0x8c, 0xa6, 0xff, 0xff, 0x90, 0xa6, 0xff, 0xff,
  0x0f, 0x00, 0x00, 0x00, 0x4d, 0x4c, 0x49, 0x52, 0x20, 0x43, 0x6f, 0x6e,
  0x76, 0x65, 0x72, 0x74, 0x65, 0x64, 0x2e, 0x00, 0x09, 0x00, 0x00, 0x00,
  0xbc, 0x2e, 0x00, 0x00, 0x78, 0x2c, 0x00, 0x00, 0x34, 0x23, 0x00, 0x00,
  0x1c, 0x21, 0x00, 0x00, 0x90, 0x17, 0x00, 0x00, 0x78, 0x15, 0x00, 0x00,
  0xec, 0x0b, 0x00, 0x00, 0xd4, 0x09, 0x00, 0x00, 0x04, 0x00, 0x00, 0x00,
  0x76, 0xd1, 0xff, 0xff, 0x14, 0x00, 0x00, 0x00, 0x38, 0x00, 0x00, 0x00,
  0x70, 0x02, 0x00, 0x00, 0x88, 0x02, 0x00, 0x00, 0xa0, 0x02, 0x00, 0x00,
  0x22, 0x00, 0x00, 0x00, 0x73, 0x65, 0x71, 0x75, 0x65, 0x6e, 0x74, 0x69,
  0x61, 0x6c, 0x2f, 0x73, 0x69, 0x6d, 0x70, 0x6c, 0x65, 0x5f, 0x72, 0x6e,
  0x6e, 0x5f, 0x33, 0x2f, 0x77, 0x68, 0x69, 0x6c, 0x65, 0x5f, 0x62, 0x6f,
  0x64, 0x79, 0x00, 0x00, 0x08, 0x00, 0x00, 0x00, 0x08, 0x02, 0x00, 0x00,
  0xd4, 0x01, 0x00, 0x00, 0x9c, 0x01, 0x00, 0x00, 0x18, 0x01, 0x00, 0x00,
  0xe0, 0x00, 0x00, 0x00, 0xac, 0x00, 0x00, 0x00, 0x88, 0x00, 0x00, 0x00,
  0x04, 0x00, 0x00, 0x00, 0x68, 0xc4, 0xff, 0xff, 0x10, 0x00, 0x00, 0x00,
  0x60, 0x00, 0x00, 0x00, 0x64, 0x00, 0x00, 0x00, 0x0f, 0x00, 0x00, 0x00,
  0x4d, 0x00, 0x00, 0x00, 0x11, 0x54, 0x65, 0x6e, 0x73, 0x6f, 0x72, 0x4c,
  0x69, 0x73, 0x74, 0x53, 0x65, 0x74, 0x49, 0x74, 0x65, 0x6d, 0x00, 0x30,
  0x12, 0x11, 0x54, 0x65, 0x6e, 0x73, 0x6f, 0x72, 0x4c, 0x69, 0x73, 0x74,
  0x53, 0x65, 0x74, 0x49, 0x74, 0x65, 0x6d, 0x1a, 0x00, 0x1a, 0x00, 0x1a,
  0x00, 0x2a, 0x13, 0x0a, 0x0d, 0x65, 0x6c, 0x65, 0x6d, 0x65, 0x6e, 0x74,
  0x5f, 0x64, 0x74, 0x79, 0x70, 0x65, 0x12, 0x02, 0x30, 0x01, 0x32, 0x00,
  0x00, 0x02, 0x45, 0x33, 0x14, 0x14, 0x04, 0x28, 0x01, 0x00, 0x00, 0x00,
  0x01, 0x00, 0x00, 0x00, 0x13, 0x00, 0x00, 0x00, 0x03, 0x00, 0x00, 0x00,
  0x02, 0x00, 0x00, 0x00, 0x06, 0x00, 0x00, 0x00, 0x12, 0x00, 0x00, 0x00,
  0x4a, 0xc4, 0xff, 0xff, 0x0c, 0x00, 0x00, 0x00, 0x10, 0x00, 0x00, 0x00,
  0x0e, 0x00, 0x00, 0x00, 0x01, 0x00, 0x00, 0x00, 0x12, 0x00, 0x00, 0x00,
  0x01, 0x00, 0x00, 0x00, 0x11, 0x00, 0x00, 0x00, 0x3a, 0xc4, 0xff, 0xff,
  0x14, 0x00, 0x00, 0x00, 0x00, 0x00, 0x00, 0x0b, 0x10, 0x00, 0x00, 0x00,
  0x14, 0x00, 0x00, 0x00, 0x0c, 0x00, 0x00, 0x00, 0xec, 0xa7, 0xff, 0xff,
  0x01, 0x00, 0x00, 0x00, 0x11, 0x00, 0x00, 0x00, 0x02, 0x00, 0x00, 0x00,
  0x10, 0x00, 0x00, 0x00, 0x0e, 0x00, 0x00, 0x00, 0x6a, 0xc4, 0xff, 0xff,
  0x14, 0x00, 0x00, 0x00, 0x00, 0x00, 0x00, 0x08, 0x10, 0x00, 0x00, 0x00,
  0x14, 0x00, 0x00, 0x00, 0x09, 0x00, 0x00, 0x00, 0x1c, 0xa8, 0xff, 0xff,
  0x01, 0x00, 0x00, 0x00, 0x10, 0x00, 0x00, 0x00, 0x03, 0x00, 0x00, 0x00,
  0x0f, 0x00, 0x00, 0x00, 0x0b, 0x00, 0x00, 0x00, 0x09, 0x00, 0x00, 0x00,
  0x6c, 0xc5, 0xff, 0xff, 0x10, 0x00, 0x00, 0x00, 0x60, 0x00, 0x00, 0x00,
  0x64, 0x00, 0x00, 0x00, 0x0d, 0x00, 0x00, 0x00, 0x4d, 0x00, 0x00, 0x00,
  0x11, 0x54, 0x65, 0x6e, 0x73, 0x6f, 0x72, 0x4c, 0x69, 0x73, 0x74, 0x47,
  0x65, 0x74, 0x49, 0x74, 0x65, 0x6d, 0x00, 0x30, 0x12, 0x11, 0x54, 0x65,
  0x6e, 0x73, 0x6f, 0x72, 0x4c, 0x69, 0x73, 0x74, 0x47, 0x65, 0x74, 0x49,
  0x74, 0x65, 0x6d, 0x1a, 0x00, 0x1a, 0x00, 0x1a, 0x00, 0x2a, 0x13, 0x0a,
  0x0d, 0x65, 0x6c, 0x65, 0x6d, 0x65, 0x6e, 0x74, 0x5f, 0x64, 0x74, 0x79,
  0x70, 0x65, 0x12, 0x02, 0x30, 0x01, 0x32, 0x00, 0x00, 0x02, 0x45, 0x33,
  0x14, 0x14, 0x04, 0x28, 0x01, 0x00, 0x00, 0x00, 0x01, 0x00, 0x00, 0x00,
  0x0f, 0x00, 0x00, 0x00, 0x03, 0x00, 0x00, 0x00, 0x05, 0x00, 0x00, 0x00,
  0x01, 0x00, 0x00, 0x00, 0x07, 0x00, 0x00, 0x00, 0x1e, 0xc5, 0xff, 0xff,
  0x14, 0x00, 0x00, 0x00, 0x00, 0x00, 0x00, 0x08, 0x10, 0x00, 0x00, 0x00,
  0x14, 0x00, 0x00, 0x00, 0x09, 0x00, 0x00, 0x00, 0xd0, 0xa8, 0xff, 0xff,
  0x01, 0x00, 0x00, 0x00, 0x0e, 0x00, 0x00, 0x00, 0x03, 0x00, 0x00, 0x00,
  0x03, 0x00, 0x00, 0x00, 0x0a, 0x00, 0x00, 0x00, 0xff, 0xff, 0xff, 0xff,
  0x52, 0xc5, 0xff, 0xff, 0x14, 0x00, 0x00, 0x00, 0x00, 0x00, 0x00, 0x0b,
  0x10, 0x00, 0x00, 0x00, 0x14, 0x00, 0x00, 0x00, 0x0c, 0x00, 0x00, 0x00,
  0x04, 0xa9, 0xff, 0xff, 0x01, 0x00, 0x00, 0x00, 0x0d, 0x00, 0x00, 0x00,
  0x02, 0x00, 0x00, 0x00, 0x00, 0x00, 0x00, 0x00, 0x08, 0x00, 0x00, 0x00,
  0x82, 0xc5, 0xff, 0xff, 0x14, 0x00, 0x00, 0x00, 0x00, 0x00, 0x00, 0x0b,
  0x10, 0x00, 0x00, 0x00, 0x14, 0x00, 0x00, 0x00, 0x0c, 0x00, 0x00, 0x00,
  0x34, 0xa9, 0xff, 0xff, 0x01, 0x00, 0x00, 0x00, 0x0c, 0x00, 0x00, 0x00,
  0x02, 0x00, 0x00, 0x00, 0x01, 0x00, 0x00, 0x00, 0x08, 0x00, 0x00, 0x00,
  0x06, 0x00, 0x00, 0x00, 0x0d, 0x00, 0x00, 0x00, 0x0c, 0x00, 0x00, 0x00,
  0x13, 0x00, 0x00, 0x00, 0x12, 0x00, 0x00, 0x00, 0x04, 0x00, 0x00, 0x00,
  0x05, 0x00, 0x00, 0x00, 0x06, 0x00, 0x00, 0x00, 0x00, 0x00, 0x00, 0x00,
  0x01, 0x00, 0x00, 0x00, 0x02, 0x00, 0x00, 0x00, 0x03, 0x00, 0x00, 0x00,
  0x04, 0x00, 0x00, 0x00, 0x05, 0x00, 0x00, 0x00, 0x14, 0x00, 0x00, 0x00,
  0xe8, 0x06, 0x00, 0x00, 0xb8, 0x06, 0x00, 0x00, 0x88, 0x06, 0x00, 0x00,
  0x44, 0x06, 0x00, 0x00, 0x14, 0x06, 0x00, 0x00, 0xe4, 0x05, 0x00, 0x00,
  0xa0, 0x05, 0x00, 0x00, 0x2c, 0x05, 0x00, 0x00, 0xcc, 0x04, 0x00, 0x00,
  0x5c, 0x04, 0x00, 0x00, 0xf4, 0x03, 0x00, 0x00, 0x90, 0x03, 0x00, 0x00,
  0x44, 0x03, 0x00, 0x00, 0xf8, 0x02, 0x00, 0x00, 0x80, 0x02, 0x00, 0x00,
  0x00, 0x02, 0x00, 0x00, 0x54, 0x01, 0x00, 0x00, 0xe4, 0x00, 0x00, 0x00,
  0x70, 0x00, 0x00, 0x00, 0x04, 0x00, 0x00, 0x00, 0x4a, 0xab, 0xff, 0xff,
  0x14, 0x00, 0x00, 0x00, 0x14, 0x00, 0x00, 0x00, 0xb8, 0x00, 0x00, 0x00,
  0x00, 0x00, 0x00, 0x0e, 0x50, 0x00, 0x00, 0x00, 0xf0, 0xa9, 0xff, 0xff,
  0x42, 0x00, 0x00, 0x00, 0x73, 0x65, 0x71, 0x75, 0x65, 0x6e, 0x74, 0x69,
  0x61, 0x6c, 0x2f, 0x73, 0x69, 0x6d, 0x70, 0x6c, 0x65, 0x5f, 0x72, 0x6e,
  0x6e, 0x5f, 0x33, 0x2f, 0x77, 0x68, 0x69, 0x6c, 0x65, 0x2f, 0x54, 0x65,
  0x6e, 0x73, 0x6f, 0x72, 0x41, 0x72, 0x72, 0x61, 0x79, 0x56, 0x32, 0x57,
  0x72, 0x69, 0x74, 0x65, 0x2f, 0x54, 0x65, 0x6e, 0x73, 0x6f, 0x72, 0x4c,
  0x69, 0x73, 0x74, 0x53, 0x65, 0x74, 0x49, 0x74, 0x65, 0x6d, 0x00, 0x00,
  0x00, 0x00, 0x00, 0x00, 0x58, 0xab, 0xff, 0xff, 0x14, 0x00, 0x00, 0x00,
  0x1c, 0x00, 0x00, 0x00, 0x1c, 0x00, 0x00, 0x00, 0xb7, 0x00, 0x00, 0x00,
  0x50, 0x00, 0x00, 0x00, 0x02, 0x00, 0x00, 0x00, 0xff, 0xff, 0xff, 0xff,
  0x14, 0x00, 0x00, 0x00, 0x64, 0xaa, 0xff, 0xff, 0x34, 0x00, 0x00, 0x00,
  0x73, 0x65, 0x71, 0x75, 0x65, 0x6e, 0x74, 0x69, 0x61, 0x6c, 0x2f, 0x73,
  0x69, 0x6d, 0x70, 0x6c, 0x65, 0x5f, 0x72, 0x6e, 0x6e, 0x5f, 0x33, 0x2f,
  0x77, 0x68, 0x69, 0x6c, 0x65, 0x2f, 0x73, 0x69, 0x6d, 0x70, 0x6c, 0x65,
  0x5f, 0x72, 0x6e, 0x6e, 0x5f, 0x63, 0x65, 0x6c, 0x6c, 0x5f, 0x37, 0x2f,
  0x54, 0x61, 0x6e, 0x68, 0x00, 0x00, 0x00, 0x00, 0x02, 0x00, 0x00, 0x00,
  0x01, 0x00, 0x00, 0x00, 0x14, 0x00, 0x00, 0x00, 0xc8, 0xab, 0xff, 0xff,
  0x14, 0x00, 0x00, 0x00, 0x1c, 0x00, 0x00, 0x00, 0x1c, 0x00, 0x00, 0x00,
  0xb6, 0x00, 0x00, 0x00, 0x4c, 0x00, 0x00, 0x00, 0x02, 0x00, 0x00, 0x00,
  0xff, 0xff, 0xff, 0xff, 0x14, 0x00, 0x00, 0x00, 0xd4, 0xaa, 0xff, 0xff,
  0x33, 0x00, 0x00, 0x00, 0x73, 0x65, 0x71, 0x75, 0x65, 0x6e, 0x74, 0x69,
  0x61, 0x6c, 0x2f, 0x73, 0x69, 0x6d, 0x70, 0x6c, 0x65, 0x5f, 0x72, 0x6e,
  0x6e, 0x5f, 0x33, 0x2f, 0x77, 0x68, 0x69, 0x6c, 0x65, 0x2f, 0x73, 0x69,
  0x6d, 0x70, 0x6c, 0x65, 0x5f, 0x72, 0x6e, 0x6e, 0x5f, 0x63, 0x65, 0x6c,
  0x6c, 0x5f, 0x37, 0x2f, 0x61, 0x64, 0x64, 0x00, 0x02, 0x00, 0x00, 0x00,
  0x01, 0x00, 0x00, 0x00, 0x14, 0x00, 0x00, 0x00, 0x34, 0xac, 0xff, 0xff,
  0x14, 0x00, 0x00, 0x00, 0x1c, 0x00, 0x00, 0x00, 0x1c, 0x00, 0x00, 0x00,
  0xb5, 0x00, 0x00, 0x00, 0x88, 0x00, 0x00, 0x00, 0x02, 0x00, 0x00, 0x00,
  0xff, 0xff, 0xff, 0xff, 0x14, 0x00, 0x00, 0x00, 0x40, 0xab, 0xff, 0xff,
  0x6e, 0x00, 0x00, 0x00, 0x73, 0x65, 0x71, 0x75, 0x65, 0x6e, 0x74, 0x69,
  0x61, 0x6c, 0x2f, 0x73, 0x69, 0x6d, 0x70, 0x6c, 0x65, 0x5f, 0x72, 0x6e,
  0x6e, 0x5f, 0x33, 0x2f, 0x77, 0x68, 0x69, 0x6c, 0x65, 0x2f, 0x73, 0x69,
  0x6d, 0x70, 0x6c, 0x65, 0x5f, 0x72, 0x6e, 0x6e, 0x5f, 0x63, 0x65, 0x6c,
  0x6c, 0x5f, 0x37, 0x2f, 0x4d, 0x61, 0x74, 0x4d, 0x75, 0x6c, 0x3b, 0x73,
  0x65, 0x71, 0x75, 0x65, 0x6e, 0x74, 0x69, 0x61, 0x6c, 0x2f, 0x73, 0x69,
  0x6d, 0x70, 0x6c, 0x65, 0x5f, 0x72, 0x6e, 0x6e, 0x5f, 0x33, 0x2f, 0x77,
  0x68, 0x69, 0x6c, 0x65, 0x2f, 0x73, 0x69, 0x6d, 0x70, 0x6c, 0x65, 0x5f,
  0x72, 0x6e, 0x6e, 0x5f, 0x63, 0x65, 0x6c, 0x6c, 0x5f, 0x37, 0x2f, 0x42,
  0x69, 0x61, 0x73, 0x41, 0x64, 0x64, 0x00, 0x00, 0x02, 0x00, 0x00, 0x00,
